<?xml version="1.0"?>
<opencv_storage>
<cascade>
  <stageType>BOOST</stageType>
  <featureType>HAAR</featureType>
  <height>50</height>
  <width>35</width>
  <stageParams>
    <boostType>GAB</boostType>
    <minHitRate>9.9900001287460327e-01</minHitRate>
    <maxFalseAlarm>5.0000000000000000e-01</maxFalseAlarm>
    <weightTrimRate>9.4999999999999996e-01</weightTrimRate>
    <maxDepth>1</maxDepth>
    <maxWeakCount>100</maxWeakCount></stageParams>
  <featureParams>
    <maxCatCount>0</maxCatCount>
    <featSize>1</featSize>
    <mode>ALL</mode></featureParams>
  <stageNum>20</stageNum>
  <stages>
    <!-- stage 0 -->
    <_>
      <maxWeakCount>14</maxWeakCount>
      <stageThreshold>-9.8599028587341309e-01</stageThreshold>
      <weakClassifiers>
        <_>
          <internalNodes>
            0 -1 457 -5.7334180921316147e-02</internalNodes>
          <leafValues>
            -5.9677422046661377e-01 4.0532544255256653e-01</leafValues></_>
        <_>
          <internalNodes>
            0 -1 320 -2.4474225938320160e-03</internalNodes>
          <leafValues>
            6.8657886981964111e-01 -2.0031039416790009e-01</leafValues></_>
        <_>
          <internalNodes>
            0 -1 40 8.4768440574407578e-03</internalNodes>
          <leafValues>
            -2.2381193935871124e-01 5.6365460157394409e-01</leafValues></_>
        <_>
          <internalNodes>
            0 -1 92 -4.1572771966457367e-02</internalNodes>
          <leafValues>
            5.4565840959548950e-01 -2.4866963922977448e-01</leafValues></_>
        <_>
          <internalNodes>
            0 -1 742 1.6054548323154449e-02</internalNodes>
          <leafValues>
            -2.0520800352096558e-01 5.9890043735504150e-01</leafValues></_>
        <_>
          <internalNodes>
            0 -1 177 1.0227608680725098e-01</internalNodes>
          <leafValues>
            1.8626151978969574e-01 -9.0087753534317017e-01</leafValues></_>
        <_>
          <internalNodes>
            0 -1 323 9.3688862398266792e-03</internalNodes>
          <leafValues>
            -2.6030212640762329e-01 6.9776439666748047e-01</leafValues></_>
        <_>
          <internalNodes>
            0 -1 32 -1.9451290369033813e-02</internalNodes>
          <leafValues>
            5.7374894618988037e-01 -1.5611822903156281e-01</leafValues></_>
        <_>
          <internalNodes>
            0 -1 554 -1.9203412812203169e-03</internalNodes>
          <leafValues>
            5.1674765348434448e-01 -2.3313882946968079e-01</leafValues></_>
        <_>
          <internalNodes>
            0 -1 327 6.0191713273525238e-03</internalNodes>
          <leafValues>
            -1.8527950346469879e-01 5.3285777568817139e-01</leafValues></_>
        <_>
          <internalNodes>
            0 -1 265 -4.6995226293802261e-03</internalNodes>
          <leafValues>
            6.0597217082977295e-01 -1.5331320464611053e-01</leafValues></_>
        <_>
          <internalNodes>
            0 -1 486 -1.1772722937166691e-03</internalNodes>
          <leafValues>
            6.0447454452514648e-01 -1.4630238711833954e-01</leafValues></_>
        <_>
          <internalNodes>
            0 -1 182 -5.3269509226083755e-03</internalNodes>
          <leafValues>
            5.8351904153823853e-01 -1.5053781867027283e-01</leafValues></_>
        <_>
          <internalNodes>
            0 -1 13 -2.6316943764686584e-01</internalNodes>
          <leafValues>
            6.4373421669006348e-01 -1.3272246718406677e-01</leafValues></_></weakClassifiers></_>
    <!-- stage 1 -->
    <_>
      <maxWeakCount>20</maxWeakCount>
      <stageThreshold>-7.0236003398895264e-01</stageThreshold>
      <weakClassifiers>
        <_>
          <internalNodes>
            0 -1 495 2.9118631500750780e-03</internalNodes>
          <leafValues>
            3.6509349942207336e-02 7.5262051820755005e-01</leafValues></_>
        <_>
          <internalNodes>
            0 -1 16 1.2464767321944237e-02</internalNodes>
          <leafValues>
            -1.6482172906398773e-01 5.7288843393325806e-01</leafValues></_>
        <_>
          <internalNodes>
            0 -1 476 3.2630103826522827e-01</internalNodes>
          <leafValues>
            -1.2746264040470123e-01 7.5505250692367554e-01</leafValues></_>
        <_>
          <internalNodes>
            0 -1 91 -1.5801337361335754e-01</internalNodes>
          <leafValues>
            6.1839640140533447e-01 -1.8100081384181976e-01</leafValues></_>
        <_>
          <internalNodes>
            0 -1 680 6.7408373579382896e-03</internalNodes>
          <leafValues>
            -1.5122750401496887e-01 5.3171145915985107e-01</leafValues></_>
        <_>
          <internalNodes>
            0 -1 604 1.1616414412856102e-03</internalNodes>
          <leafValues>
            -1.8963472545146942e-01 4.9659866094589233e-01</leafValues></_>
        <_>
          <internalNodes>
            0 -1 105 -2.2013936191797256e-02</internalNodes>
          <leafValues>
            5.1967686414718628e-01 -1.4996123313903809e-01</leafValues></_>
        <_>
          <internalNodes>
            0 -1 546 6.2506942776963115e-04</internalNodes>
          <leafValues>
            -2.0262227952480316e-01 3.7520873546600342e-01</leafValues></_>
        <_>
          <internalNodes>
            0 -1 446 3.1808350468054414e-04</internalNodes>
          <leafValues>
            -2.5832155346870422e-01 3.7937375903129578e-01</leafValues></_>
        <_>
          <internalNodes>
            0 -1 727 6.3489904277957976e-05</internalNodes>
          <leafValues>
            1.6994522511959076e-01 -5.5851012468338013e-01</leafValues></_>
        <_>
          <internalNodes>
            0 -1 103 -6.0705086216330528e-03</internalNodes>
          <leafValues>
            5.2479213476181030e-01 -1.7262537777423859e-01</leafValues></_>
        <_>
          <internalNodes>
            0 -1 53 -1.0293986648321152e-02</internalNodes>
          <leafValues>
            4.2365080118179321e-01 -1.8594004213809967e-01</leafValues></_>
        <_>
          <internalNodes>
            0 -1 739 2.7926467359066010e-02</internalNodes>
          <leafValues>
            -1.1237458139657974e-01 6.6714078187942505e-01</leafValues></_>
        <_>
          <internalNodes>
            0 -1 73 -8.4109738469123840e-02</internalNodes>
          <leafValues>
            6.9610440731048584e-01 -1.1210843175649643e-01</leafValues></_>
        <_>
          <internalNodes>
            0 -1 521 4.4726621126756072e-04</internalNodes>
          <leafValues>
            -1.9701325893402100e-01 3.6158770322799683e-01</leafValues></_>
        <_>
          <internalNodes>
            0 -1 474 -8.2745193503797054e-04</internalNodes>
          <leafValues>
            -6.8213522434234619e-01 1.3410647213459015e-01</leafValues></_>
        <_>
          <internalNodes>
            0 -1 308 -7.9268878325819969e-03</internalNodes>
          <leafValues>
            4.9992462992668152e-01 -2.0160892605781555e-01</leafValues></_>
        <_>
          <internalNodes>
            0 -1 356 1.2564738281071186e-03</internalNodes>
          <leafValues>
            -1.3849239051342010e-01 5.4318678379058838e-01</leafValues></_>
        <_>
          <internalNodes>
            0 -1 217 2.6419141795486212e-03</internalNodes>
          <leafValues>
            -2.0538926124572754e-01 4.4070467352867126e-01</leafValues></_>
        <_>
          <internalNodes>
            0 -1 299 -4.7303855419158936e-02</internalNodes>
          <leafValues>
            8.2555687427520752e-01 -9.4794310629367828e-02</leafValues></_></weakClassifiers></_>
    <!-- stage 2 -->
    <_>
      <maxWeakCount>20</maxWeakCount>
      <stageThreshold>-9.0622496604919434e-01</stageThreshold>
      <weakClassifiers>
        <_>
          <internalNodes>
            0 -1 480 6.7720964550971985e-02</internalNodes>
          <leafValues>
            3.6588922142982483e-01 -4.4736841320991516e-01</leafValues></_>
        <_>
          <internalNodes>
            0 -1 488 -3.2966576982289553e-03</internalNodes>
          <leafValues>
            4.4807219505310059e-01 -1.9270609319210052e-01</leafValues></_>
        <_>
          <internalNodes>
            0 -1 68 2.1463213860988617e-01</internalNodes>
          <leafValues>
            -1.1381312459707260e-01 6.9608223438262939e-01</leafValues></_>
        <_>
          <internalNodes>
            0 -1 193 -1.3203275203704834e-01</internalNodes>
          <leafValues>
            5.9529846906661987e-01 -1.4531689882278442e-01</leafValues></_>
        <_>
          <internalNodes>
            0 -1 711 -2.0974057260900736e-03</internalNodes>
          <leafValues>
            3.8737291097640991e-01 -2.0214629173278809e-01</leafValues></_>
        <_>
          <internalNodes>
            0 -1 662 -7.6350844465196133e-03</internalNodes>
          <leafValues>
            3.3742648363113403e-01 -2.5041130185127258e-01</leafValues></_>
        <_>
          <internalNodes>
            0 -1 104 1.3669892214238644e-03</internalNodes>
          <leafValues>
            -1.7059285938739777e-01 4.5076122879981995e-01</leafValues></_>
        <_>
          <internalNodes>
            0 -1 67 2.5951738934963942e-03</internalNodes>
          <leafValues>
            1.3712872564792633e-01 -5.6053590774536133e-01</leafValues></_>
        <_>
          <internalNodes>
            0 -1 76 -6.5857323352247477e-04</internalNodes>
          <leafValues>
            3.6650422215461731e-01 -2.1378864347934723e-01</leafValues></_>
        <_>
          <internalNodes>
            0 -1 310 3.3047664910554886e-03</internalNodes>
          <leafValues>
            -1.4153628051280975e-01 4.8390230536460876e-01</leafValues></_>
        <_>
          <internalNodes>
            0 -1 467 1.1570708738872781e-04</internalNodes>
          <leafValues>
            -2.2820541262626648e-01 3.4981036186218262e-01</leafValues></_>
        <_>
          <internalNodes>
            0 -1 600 -7.3284753598272800e-03</internalNodes>
          <leafValues>
            6.3413196802139282e-01 -1.0703807324171066e-01</leafValues></_>
        <_>
          <internalNodes>
            0 -1 684 -1.8917627632617950e-02</internalNodes>
          <leafValues>
            3.6980083584785461e-01 -1.9501394033432007e-01</leafValues></_>
        <_>
          <internalNodes>
            0 -1 179 -1.7069379100576043e-04</internalNodes>
          <leafValues>
            3.2703241705894470e-01 -2.2653980553150177e-01</leafValues></_>
        <_>
          <internalNodes>
            0 -1 219 6.0992017388343811e-03</internalNodes>
          <leafValues>
            -1.6679680347442627e-01 4.4471225142478943e-01</leafValues></_>
        <_>
          <internalNodes>
            0 -1 515 5.2747946028830484e-05</internalNodes>
          <leafValues>
            -2.6054793596267700e-01 2.5541386008262634e-01</leafValues></_>
        <_>
          <internalNodes>
            0 -1 598 -6.4129807287827134e-04</internalNodes>
          <leafValues>
            4.1000390052795410e-01 -1.6559524834156036e-01</leafValues></_>
        <_>
          <internalNodes>
            0 -1 314 -2.5800071656703949e-02</internalNodes>
          <leafValues>
            -5.2962505817413330e-01 1.2123998999595642e-01</leafValues></_>
        <_>
          <internalNodes>
            0 -1 627 7.5245702646498103e-06</internalNodes>
          <leafValues>
            -2.0189888775348663e-01 3.2896897196769714e-01</leafValues></_>
        <_>
          <internalNodes>
            0 -1 88 6.0354085871949792e-04</internalNodes>
          <leafValues>
            1.5153203904628754e-01 -4.3672591447830200e-01</leafValues></_></weakClassifiers></_>
    <!-- stage 3 -->
    <_>
      <maxWeakCount>28</maxWeakCount>
      <stageThreshold>-8.1536328792572021e-01</stageThreshold>
      <weakClassifiers>
        <_>
          <internalNodes>
            0 -1 39 7.7423071488738060e-03</internalNodes>
          <leafValues>
            1.0032894462347031e-01 7.2395831346511841e-01</leafValues></_>
        <_>
          <internalNodes>
            0 -1 112 1.4548519626259804e-02</internalNodes>
          <leafValues>
            -1.2096870690584183e-01 5.1361191272735596e-01</leafValues></_>
        <_>
          <internalNodes>
            0 -1 376 -5.4695419967174530e-02</internalNodes>
          <leafValues>
            -6.7163479328155518e-01 9.2802643775939941e-02</leafValues></_>
        <_>
          <internalNodes>
            0 -1 635 -3.1479686498641968e-02</internalNodes>
          <leafValues>
            -5.9240853786468506e-01 1.2003120034933090e-01</leafValues></_>
        <_>
          <internalNodes>
            0 -1 143 7.9274540767073631e-03</internalNodes>
          <leafValues>
            -1.2761846184730530e-01 5.4482740163803101e-01</leafValues></_>
        <_>
          <internalNodes>
            0 -1 190 7.2125117294490337e-03</internalNodes>
          <leafValues>
            -1.8689246475696564e-01 3.6800447106361389e-01</leafValues></_>
        <_>
          <internalNodes>
            0 -1 8 1.4689653180539608e-03</internalNodes>
          <leafValues>
            1.6252329945564270e-01 -4.0571328997612000e-01</leafValues></_>
        <_>
          <internalNodes>
            0 -1 7 -2.1780426613986492e-03</internalNodes>
          <leafValues>
            -5.3545212745666504e-01 1.8658648431301117e-01</leafValues></_>
        <_>
          <internalNodes>
            0 -1 606 -7.0473412051796913e-03</internalNodes>
          <leafValues>
            6.1433768272399902e-01 -1.6234701871871948e-01</leafValues></_>
        <_>
          <internalNodes>
            0 -1 152 -3.8938866928219795e-03</internalNodes>
          <leafValues>
            3.9140567183494568e-01 -1.3711996376514435e-01</leafValues></_>
        <_>
          <internalNodes>
            0 -1 278 2.3189559578895569e-02</internalNodes>
          <leafValues>
            -1.1507841944694519e-01 4.7868183255195618e-01</leafValues></_>
        <_>
          <internalNodes>
            0 -1 254 -9.0509448200464249e-03</internalNodes>
          <leafValues>
            3.4548601508140564e-01 -2.0221959054470062e-01</leafValues></_>
        <_>
          <internalNodes>
            0 -1 499 4.2803129181265831e-03</internalNodes>
          <leafValues>
            -1.4017558097839355e-01 4.5827227830886841e-01</leafValues></_>
        <_>
          <internalNodes>
            0 -1 583 -1.0485610691830516e-03</internalNodes>
          <leafValues>
            3.9202168583869934e-01 -1.6404898464679718e-01</leafValues></_>
        <_>
          <internalNodes>
            0 -1 571 6.1798794195055962e-03</internalNodes>
          <leafValues>
            -1.4970719814300537e-01 4.1617879271507263e-01</leafValues></_>
        <_>
          <internalNodes>
            0 -1 13 3.1642597913742065e-01</internalNodes>
          <leafValues>
            -1.0095074772834778e-01 5.3605502843856812e-01</leafValues></_>
        <_>
          <internalNodes>
            0 -1 25 -3.6271973513066769e-03</internalNodes>
          <leafValues>
            3.4350490570068359e-01 -1.9240036606788635e-01</leafValues></_>
        <_>
          <internalNodes>
            0 -1 242 6.1796285212039948e-02</internalNodes>
          <leafValues>
            9.0205654501914978e-02 -7.0391464233398438e-01</leafValues></_>
        <_>
          <internalNodes>
            0 -1 324 -1.1289641261100769e-02</internalNodes>
          <leafValues>
            6.1382883787155151e-01 -1.0847266018390656e-01</leafValues></_>
        <_>
          <internalNodes>
            0 -1 479 -8.1212706863880157e-02</internalNodes>
          <leafValues>
            -6.5451598167419434e-01 1.1077756434679031e-01</leafValues></_>
        <_>
          <internalNodes>
            0 -1 186 -1.9401147437747568e-04</internalNodes>
          <leafValues>
            -5.4507648944854736e-01 1.1108586937189102e-01</leafValues></_>
        <_>
          <internalNodes>
            0 -1 360 3.5433929879218340e-03</internalNodes>
          <leafValues>
            -1.8682850897312164e-01 3.4741529822349548e-01</leafValues></_>
        <_>
          <internalNodes>
            0 -1 681 2.5835020933300257e-03</internalNodes>
          <leafValues>
            -1.8554170429706573e-01 3.3194831013679504e-01</leafValues></_>
        <_>
          <internalNodes>
            0 -1 85 -3.5585276782512665e-03</internalNodes>
          <leafValues>
            -6.8022364377975464e-01 9.6986934542655945e-02</leafValues></_>
        <_>
          <internalNodes>
            0 -1 405 -9.7386993002146482e-04</internalNodes>
          <leafValues>
            3.3064907789230347e-01 -2.0048168301582336e-01</leafValues></_>
        <_>
          <internalNodes>
            0 -1 304 3.5618155379779637e-04</internalNodes>
          <leafValues>
            1.1784885078668594e-01 -5.9021002054214478e-01</leafValues></_>
        <_>
          <internalNodes>
            0 -1 228 5.4662628099322319e-03</internalNodes>
          <leafValues>
            -9.4069957733154297e-02 7.3420041799545288e-01</leafValues></_>
        <_>
          <internalNodes>
            0 -1 194 1.5013059601187706e-03</internalNodes>
          <leafValues>
            -1.6736370325088501e-01 3.5038369894027710e-01</leafValues></_></weakClassifiers></_>
    <!-- stage 4 -->
    <_>
      <maxWeakCount>33</maxWeakCount>
      <stageThreshold>-1.0113457441329956e+00</stageThreshold>
      <weakClassifiers>
        <_>
          <internalNodes>
            0 -1 401 6.5206119325011969e-04</internalNodes>
          <leafValues>
            3.6684995889663696e-01 -2.0489296317100525e-01</leafValues></_>
        <_>
          <internalNodes>
            0 -1 384 -5.8108866214752197e-03</internalNodes>
          <leafValues>
            5.9613788127899170e-01 -1.0212844610214233e-01</leafValues></_>
        <_>
          <internalNodes>
            0 -1 36 1.2730324640870094e-02</internalNodes>
          <leafValues>
            -1.5467409789562225e-01 4.0908044576644897e-01</leafValues></_>
        <_>
          <internalNodes>
            0 -1 54 -3.0300002545118332e-02</internalNodes>
          <leafValues>
            5.5743998289108276e-01 -1.2140731513500214e-01</leafValues></_>
        <_>
          <internalNodes>
            0 -1 57 1.3414372503757477e-01</internalNodes>
          <leafValues>
            -1.1488974094390869e-01 6.7109316587448120e-01</leafValues></_>
        <_>
          <internalNodes>
            0 -1 485 1.2262346222996712e-02</internalNodes>
          <leafValues>
            1.1889300495386124e-01 -5.9000355005264282e-01</leafValues></_>
        <_>
          <internalNodes>
            0 -1 401 -1.7077667871490121e-04</internalNodes>
          <leafValues>
            -3.8454222679138184e-01 1.4221565425395966e-01</leafValues></_>
        <_>
          <internalNodes>
            0 -1 648 1.2373156845569611e-02</internalNodes>
          <leafValues>
            -9.4715155661106110e-02 5.3899091482162476e-01</leafValues></_>
        <_>
          <internalNodes>
            0 -1 380 5.1699383184313774e-03</internalNodes>
          <leafValues>
            -9.6941448748111725e-02 5.4079186916351318e-01</leafValues></_>
        <_>
          <internalNodes>
            0 -1 534 1.1023740470409393e-01</internalNodes>
          <leafValues>
            -1.4445295929908752e-01 3.9702627062797546e-01</leafValues></_>
        <_>
          <internalNodes>
            0 -1 233 2.0302671939134598e-02</internalNodes>
          <leafValues>
            -9.0004704892635345e-02 6.7035973072052002e-01</leafValues></_>
        <_>
          <internalNodes>
            0 -1 280 -1.4707458205521107e-02</internalNodes>
          <leafValues>
            7.5970512628555298e-01 -6.4059942960739136e-02</leafValues></_>
        <_>
          <internalNodes>
            0 -1 396 -5.3425501100718975e-03</internalNodes>
          <leafValues>
            4.9122852087020874e-01 -1.0479044914245605e-01</leafValues></_>
        <_>
          <internalNodes>
            0 -1 273 4.6513583511114120e-03</internalNodes>
          <leafValues>
            7.5536340475082397e-02 -6.9243282079696655e-01</leafValues></_>
        <_>
          <internalNodes>
            0 -1 429 -2.2461482882499695e-01</internalNodes>
          <leafValues>
            7.1620512008666992e-01 -7.0624470710754395e-02</leafValues></_>
        <_>
          <internalNodes>
            0 -1 629 1.7755018547177315e-02</internalNodes>
          <leafValues>
            -1.3437083363533020e-01 4.1717249155044556e-01</leafValues></_>
        <_>
          <internalNodes>
            0 -1 394 3.0056457035243511e-03</internalNodes>
          <leafValues>
            -1.4838872849941254e-01 3.5903051495552063e-01</leafValues></_>
        <_>
          <internalNodes>
            0 -1 520 1.6763597726821899e-02</internalNodes>
          <leafValues>
            -1.1503383517265320e-01 5.1123172044754028e-01</leafValues></_>
        <_>
          <internalNodes>
            0 -1 442 6.2366935890167952e-04</internalNodes>
          <leafValues>
            -1.5777567028999329e-01 3.2425507903099060e-01</leafValues></_>
        <_>
          <internalNodes>
            0 -1 352 -8.5108116036280990e-04</internalNodes>
          <leafValues>
            3.3973124623298645e-01 -1.7093349993228912e-01</leafValues></_>
        <_>
          <internalNodes>
            0 -1 677 2.7602841146290302e-03</internalNodes>
          <leafValues>
            7.3117285966873169e-02 -7.3802864551544189e-01</leafValues></_>
        <_>
          <internalNodes>
            0 -1 569 -7.0852213539183140e-03</internalNodes>
          <leafValues>
            4.3763610720634460e-01 -1.3372913002967834e-01</leafValues></_>
        <_>
          <internalNodes>
            0 -1 663 -7.8988424502313137e-04</internalNodes>
          <leafValues>
            3.5163888335227966e-01 -1.4692632853984833e-01</leafValues></_>
        <_>
          <internalNodes>
            0 -1 180 -3.3461009152233601e-03</internalNodes>
          <leafValues>
            -8.1209915876388550e-01 7.3800645768642426e-02</leafValues></_>
        <_>
          <internalNodes>
            0 -1 656 -2.3755021393299103e-02</internalNodes>
          <leafValues>
            5.6574082374572754e-01 -1.0908722132444382e-01</leafValues></_>
        <_>
          <internalNodes>
            0 -1 315 3.9313308894634247e-02</internalNodes>
          <leafValues>
            7.1863807737827301e-02 -8.2302516698837280e-01</leafValues></_>
        <_>
          <internalNodes>
            0 -1 511 2.1647904068231583e-03</internalNodes>
          <leafValues>
            -1.5713433921337128e-01 3.2767525315284729e-01</leafValues></_>
        <_>
          <internalNodes>
            0 -1 599 8.8913127547129989e-04</internalNodes>
          <leafValues>
            -1.6419969499111176e-01 3.8456794619560242e-01</leafValues></_>
        <_>
          <internalNodes>
            0 -1 481 -3.7508449167944491e-05</internalNodes>
          <leafValues>
            -2.7337372303009033e-01 2.0365191996097565e-01</leafValues></_>
        <_>
          <internalNodes>
            0 -1 283 1.2218366609886289e-03</internalNodes>
          <leafValues>
            8.6749292910099030e-02 -6.1006206274032593e-01</leafValues></_>
        <_>
          <internalNodes>
            0 -1 671 2.2486180067062378e-02</internalNodes>
          <leafValues>
            -1.0417041927576065e-01 5.8199292421340942e-01</leafValues></_>
        <_>
          <internalNodes>
            0 -1 676 1.2249690189491957e-04</internalNodes>
          <leafValues>
            -1.7486530542373657e-01 3.1845837831497192e-01</leafValues></_>
        <_>
          <internalNodes>
            0 -1 292 3.3323061652481556e-03</internalNodes>
          <leafValues>
            -1.6356484591960907e-01 3.2937830686569214e-01</leafValues></_></weakClassifiers></_>
    <!-- stage 5 -->
    <_>
      <maxWeakCount>28</maxWeakCount>
      <stageThreshold>-8.1928634643554688e-01</stageThreshold>
      <weakClassifiers>
        <_>
          <internalNodes>
            0 -1 293 7.2108125314116478e-03</internalNodes>
          <leafValues>
            8.8180109858512878e-02 5.7303369045257568e-01</leafValues></_>
        <_>
          <internalNodes>
            0 -1 110 -3.1119005288928747e-03</internalNodes>
          <leafValues>
            -5.6254947185516357e-01 1.2296594679355621e-01</leafValues></_>
        <_>
          <internalNodes>
            0 -1 130 -8.3154737949371338e-03</internalNodes>
          <leafValues>
            5.1399362087249756e-01 -1.1876828223466873e-01</leafValues></_>
        <_>
          <internalNodes>
            0 -1 109 3.7954458966851234e-03</internalNodes>
          <leafValues>
            -1.9265927374362946e-01 3.3965140581130981e-01</leafValues></_>
        <_>
          <internalNodes>
            0 -1 455 1.2186577077955008e-03</internalNodes>
          <leafValues>
            9.9168583750724792e-02 -5.3227466344833374e-01</leafValues></_>
        <_>
          <internalNodes>
            0 -1 779 -1.7106919549405575e-03</internalNodes>
          <leafValues>
            2.9114535450935364e-01 -1.8870164453983307e-01</leafValues></_>
        <_>
          <internalNodes>
            0 -1 141 4.4146487489342690e-03</internalNodes>
          <leafValues>
            8.0551132559776306e-02 -6.7354869842529297e-01</leafValues></_>
        <_>
          <internalNodes>
            0 -1 580 3.3348812721669674e-03</internalNodes>
          <leafValues>
            -1.4140330255031586e-01 3.8358452916145325e-01</leafValues></_>
        <_>
          <internalNodes>
            0 -1 494 1.1186246993020177e-03</internalNodes>
          <leafValues>
            -2.6351815462112427e-01 2.5741553306579590e-01</leafValues></_>
        <_>
          <internalNodes>
            0 -1 70 3.8937723729759455e-05</internalNodes>
          <leafValues>
            1.6896669566631317e-01 -3.6296105384826660e-01</leafValues></_>
        <_>
          <internalNodes>
            0 -1 526 -4.4783286750316620e-02</internalNodes>
          <leafValues>
            6.2659722566604614e-01 -1.1328155547380447e-01</leafValues></_>
        <_>
          <internalNodes>
            0 -1 205 2.6345975697040558e-02</internalNodes>
          <leafValues>
            -7.0316530764102936e-02 5.8156257867813110e-01</leafValues></_>
        <_>
          <internalNodes>
            0 -1 204 -5.3188796155154705e-03</internalNodes>
          <leafValues>
            3.8245978951454163e-01 -1.4642511308193207e-01</leafValues></_>
        <_>
          <internalNodes>
            0 -1 655 1.6265020240098238e-03</internalNodes>
          <leafValues>
            -1.3898341357707977e-01 3.6792725324630737e-01</leafValues></_>
        <_>
          <internalNodes>
            0 -1 552 2.0469236187636852e-03</internalNodes>
          <leafValues>
            -1.8982410430908203e-01 2.9833900928497314e-01</leafValues></_>
        <_>
          <internalNodes>
            0 -1 702 1.1275183642283082e-03</internalNodes>
          <leafValues>
            -1.8591053783893585e-01 3.0889958143234253e-01</leafValues></_>
        <_>
          <internalNodes>
            0 -1 469 2.4874371010810137e-03</internalNodes>
          <leafValues>
            7.6177544891834259e-02 -7.6637357473373413e-01</leafValues></_>
        <_>
          <internalNodes>
            0 -1 264 1.7836321145296097e-02</internalNodes>
          <leafValues>
            1.1014267802238464e-01 -4.5615395903587341e-01</leafValues></_>
        <_>
          <internalNodes>
            0 -1 56 -2.6256777346134186e-02</internalNodes>
          <leafValues>
            5.8603692054748535e-01 -1.1230541020631790e-01</leafValues></_>
        <_>
          <internalNodes>
            0 -1 296 -1.5903819352388382e-02</internalNodes>
          <leafValues>
            6.5157502889633179e-01 -6.9760471582412720e-02</leafValues></_>
        <_>
          <internalNodes>
            0 -1 550 -3.4584254026412964e-03</internalNodes>
          <leafValues>
            6.3886916637420654e-01 -7.7433139085769653e-02</leafValues></_>
        <_>
          <internalNodes>
            0 -1 50 5.1113339141011238e-03</internalNodes>
          <leafValues>
            7.5520597398281097e-02 -8.2027977705001831e-01</leafValues></_>
        <_>
          <internalNodes>
            0 -1 386 3.4177108318544924e-05</internalNodes>
          <leafValues>
            -1.9300164282321930e-01 2.6547223329544067e-01</leafValues></_>
        <_>
          <internalNodes>
            0 -1 221 3.5092909820377827e-03</internalNodes>
          <leafValues>
            1.0411171615123749e-01 -5.1064074039459229e-01</leafValues></_>
        <_>
          <internalNodes>
            0 -1 565 6.3334954902529716e-03</internalNodes>
          <leafValues>
            -1.3362741470336914e-01 3.9004787802696228e-01</leafValues></_>
        <_>
          <internalNodes>
            0 -1 645 1.1679627001285553e-02</internalNodes>
          <leafValues>
            -1.2578460574150085e-01 4.4324415922164917e-01</leafValues></_>
        <_>
          <internalNodes>
            0 -1 575 -4.2175032198429108e-02</internalNodes>
          <leafValues>
            4.0148302912712097e-01 -1.7366184294223785e-01</leafValues></_>
        <_>
          <internalNodes>
            0 -1 46 -1.4580077258870006e-03</internalNodes>
          <leafValues>
            2.6480010151863098e-01 -2.1104435622692108e-01</leafValues></_></weakClassifiers></_>
    <!-- stage 6 -->
    <_>
      <maxWeakCount>37</maxWeakCount>
      <stageThreshold>-6.7977207899093628e-01</stageThreshold>
      <weakClassifiers>
        <_>
          <internalNodes>
            0 -1 312 1.2520823627710342e-02</internalNodes>
          <leafValues>
            1.3725490868091583e-01 6.9230771064758301e-01</leafValues></_>
        <_>
          <internalNodes>
            0 -1 271 9.5075106946751475e-04</internalNodes>
          <leafValues>
            -1.6164052486419678e-01 3.1398171186447144e-01</leafValues></_>
        <_>
          <internalNodes>
            0 -1 419 8.4659841377288103e-04</internalNodes>
          <leafValues>
            -1.9493053853511810e-01 2.3582582175731659e-01</leafValues></_>
        <_>
          <internalNodes>
            0 -1 445 -9.4960920978337526e-04</internalNodes>
          <leafValues>
            3.6469113826751709e-01 -1.2922416627407074e-01</leafValues></_>
        <_>
          <internalNodes>
            0 -1 449 4.4979769736528397e-03</internalNodes>
          <leafValues>
            6.9810800254344940e-02 -7.7344381809234619e-01</leafValues></_>
        <_>
          <internalNodes>
            0 -1 719 6.4033162780106068e-03</internalNodes>
          <leafValues>
            -1.2384098768234253e-01 3.6499828100204468e-01</leafValues></_>
        <_>
          <internalNodes>
            0 -1 616 -1.4510247856378555e-03</internalNodes>
          <leafValues>
            3.1824785470962524e-01 -1.6718839108943939e-01</leafValues></_>
        <_>
          <internalNodes>
            0 -1 475 -1.9242717826273292e-04</internalNodes>
          <leafValues>
            -3.4579664468765259e-01 1.4908362925052643e-01</leafValues></_>
        <_>
          <internalNodes>
            0 -1 198 -9.8346336744725704e-04</internalNodes>
          <leafValues>
            -4.6487963199615479e-01 9.2658944427967072e-02</leafValues></_>
        <_>
          <internalNodes>
            0 -1 764 1.3834533747285604e-03</internalNodes>
          <leafValues>
            -1.7646597325801849e-01 2.6733785867691040e-01</leafValues></_>
        <_>
          <internalNodes>
            0 -1 713 1.9122429192066193e-02</internalNodes>
          <leafValues>
            -6.2537759542465210e-02 5.8661818504333496e-01</leafValues></_>
        <_>
          <internalNodes>
            0 -1 19 8.1371124833822250e-03</internalNodes>
          <leafValues>
            -1.7173828184604645e-01 3.0850338935852051e-01</leafValues></_>
        <_>
          <internalNodes>
            0 -1 30 -4.0286462754011154e-03</internalNodes>
          <leafValues>
            4.3444085121154785e-01 -1.1312374472618103e-01</leafValues></_>
        <_>
          <internalNodes>
            0 -1 107 -2.8131778817623854e-03</internalNodes>
          <leafValues>
            -5.0108605623245239e-01 1.0588304698467255e-01</leafValues></_>
        <_>
          <internalNodes>
            0 -1 414 -3.0492149293422699e-02</internalNodes>
          <leafValues>
            7.0747250318527222e-01 -7.3133155703544617e-02</leafValues></_>
        <_>
          <internalNodes>
            0 -1 731 -1.2069747317582369e-03</internalNodes>
          <leafValues>
            3.4132784605026245e-01 -1.4057847857475281e-01</leafValues></_>
        <_>
          <internalNodes>
            0 -1 191 -2.5781530886888504e-02</internalNodes>
          <leafValues>
            -9.0828543901443481e-01 5.5599600076675415e-02</leafValues></_>
        <_>
          <internalNodes>
            0 -1 420 1.4981658896431327e-03</internalNodes>
          <leafValues>
            -1.5987569093704224e-01 3.0730980634689331e-01</leafValues></_>
        <_>
          <internalNodes>
            0 -1 355 -1.8411336350254714e-04</internalNodes>
          <leafValues>
            -5.0120085477828979e-01 1.0397858172655106e-01</leafValues></_>
        <_>
          <internalNodes>
            0 -1 665 -4.0219360380433500e-04</internalNodes>
          <leafValues>
            3.3478581905364990e-01 -1.5014404058456421e-01</leafValues></_>
        <_>
          <internalNodes>
            0 -1 388 2.4407210294157267e-03</internalNodes>
          <leafValues>
            -1.0008863359689713e-01 4.5427069067955017e-01</leafValues></_>
        <_>
          <internalNodes>
            0 -1 159 2.3920789826661348e-03</internalNodes>
          <leafValues>
            -1.9141834974288940e-01 2.5597250461578369e-01</leafValues></_>
        <_>
          <internalNodes>
            0 -1 348 8.3114668726921082e-02</internalNodes>
          <leafValues>
            6.5985001623630524e-02 -8.5203510522842407e-01</leafValues></_>
        <_>
          <internalNodes>
            0 -1 743 -1.6933724284172058e-02</internalNodes>
          <leafValues>
            4.9619612097740173e-01 -1.1533027887344360e-01</leafValues></_>
        <_>
          <internalNodes>
            0 -1 102 2.5970206479541957e-04</internalNodes>
          <leafValues>
            -1.4076966047286987e-01 3.6541208624839783e-01</leafValues></_>
        <_>
          <internalNodes>
            0 -1 567 -1.8734248587861657e-03</internalNodes>
          <leafValues>
            -5.2924025058746338e-01 9.8594784736633301e-02</leafValues></_>
        <_>
          <internalNodes>
            0 -1 666 1.9588708528317511e-04</internalNodes>
          <leafValues>
            -1.6956004500389099e-01 3.0091336369514465e-01</leafValues></_>
        <_>
          <internalNodes>
            0 -1 195 -2.9337037354707718e-02</internalNodes>
          <leafValues>
            4.5928445458412170e-01 -1.1095012724399567e-01</leafValues></_>
        <_>
          <internalNodes>
            0 -1 726 1.6126321861520410e-04</internalNodes>
          <leafValues>
            -1.5834774076938629e-01 3.0021864175796509e-01</leafValues></_>
        <_>
          <internalNodes>
            0 -1 96 9.0613830834627151e-03</internalNodes>
          <leafValues>
            -9.4040147960186005e-02 6.6278308629989624e-01</leafValues></_>
        <_>
          <internalNodes>
            0 -1 751 1.9174807239323854e-03</internalNodes>
          <leafValues>
            -1.1610014736652374e-01 4.1501760482788086e-01</leafValues></_>
        <_>
          <internalNodes>
            0 -1 780 6.0808695852756500e-03</internalNodes>
          <leafValues>
            -1.0234516113996506e-01 5.0101840496063232e-01</leafValues></_>
        <_>
          <internalNodes>
            0 -1 767 -1.6961395158432424e-04</internalNodes>
          <leafValues>
            -4.8912480473518372e-01 1.1594659835100174e-01</leafValues></_>
        <_>
          <internalNodes>
            0 -1 223 4.0612611919641495e-03</internalNodes>
          <leafValues>
            -1.5069003403186798e-01 3.2572567462921143e-01</leafValues></_>
        <_>
          <internalNodes>
            0 -1 395 3.1214025802910328e-03</internalNodes>
          <leafValues>
            -1.0898880660533905e-01 4.5715823769569397e-01</leafValues></_>
        <_>
          <internalNodes>
            0 -1 714 -9.9026015959680080e-04</internalNodes>
          <leafValues>
            -4.9892783164978027e-01 1.0621244460344315e-01</leafValues></_>
        <_>
          <internalNodes>
            0 -1 649 1.2975744903087616e-02</internalNodes>
          <leafValues>
            -1.3117945194244385e-01 3.6962604522705078e-01</leafValues></_></weakClassifiers></_>
    <!-- stage 7 -->
    <_>
      <maxWeakCount>32</maxWeakCount>
      <stageThreshold>-6.8934220075607300e-01</stageThreshold>
      <weakClassifiers>
        <_>
          <internalNodes>
            0 -1 334 1.7349683912470937e-03</internalNodes>
          <leafValues>
            3.3623820543289185e-01 -2.8251120448112488e-01</leafValues></_>
        <_>
          <internalNodes>
            0 -1 176 1.5829806029796600e-01</internalNodes>
          <leafValues>
            -1.1155285686254501e-01 3.9186355471611023e-01</leafValues></_>
        <_>
          <internalNodes>
            0 -1 675 1.3917083851993084e-02</internalNodes>
          <leafValues>
            -9.3950450420379639e-02 4.5528498291969299e-01</leafValues></_>
        <_>
          <internalNodes>
            0 -1 513 1.4167359098792076e-02</internalNodes>
          <leafValues>
            -7.7183358371257782e-02 5.5228877067565918e-01</leafValues></_>
        <_>
          <internalNodes>
            0 -1 439 2.6299082674086094e-03</internalNodes>
          <leafValues>
            -1.8285001814365387e-01 2.7515783905982971e-01</leafValues></_>
        <_>
          <internalNodes>
            0 -1 721 -5.0503686070442200e-03</internalNodes>
          <leafValues>
            3.0447861552238464e-01 -2.0723065733909607e-01</leafValues></_>
        <_>
          <internalNodes>
            0 -1 229 -1.0195874422788620e-01</internalNodes>
          <leafValues>
            3.8895347714424133e-01 -1.1034454405307770e-01</leafValues></_>
        <_>
          <internalNodes>
            0 -1 79 4.4343061745166779e-03</internalNodes>
          <leafValues>
            -1.4865240454673767e-01 3.4215390682220459e-01</leafValues></_>
        <_>
          <internalNodes>
            0 -1 189 7.4733523651957512e-03</internalNodes>
          <leafValues>
            -1.5682362020015717e-01 2.9886102676391602e-01</leafValues></_>
        <_>
          <internalNodes>
            0 -1 664 3.0063930898904800e-02</internalNodes>
          <leafValues>
            8.4927737712860107e-02 -4.9487596750259399e-01</leafValues></_>
        <_>
          <internalNodes>
            0 -1 354 5.5774101056158543e-03</internalNodes>
          <leafValues>
            -1.1128867417573929e-01 3.9256170392036438e-01</leafValues></_>
        <_>
          <internalNodes>
            0 -1 142 -5.2157335449010134e-04</internalNodes>
          <leafValues>
            -4.3804198503494263e-01 1.0213932394981384e-01</leafValues></_>
        <_>
          <internalNodes>
            0 -1 89 6.4347274601459503e-03</internalNodes>
          <leafValues>
            8.9482516050338745e-02 -5.0707888603210449e-01</leafValues></_>
        <_>
          <internalNodes>
            0 -1 286 -1.0674420744180679e-02</internalNodes>
          <leafValues>
            4.7950705885887146e-01 -9.8909161984920502e-02</leafValues></_>
        <_>
          <internalNodes>
            0 -1 725 7.9327402636408806e-04</internalNodes>
          <leafValues>
            -1.2079181522130966e-01 3.1976017355918884e-01</leafValues></_>
        <_>
          <internalNodes>
            0 -1 451 -9.7647064831107855e-04</internalNodes>
          <leafValues>
            3.2934090495109558e-01 -1.4996388554573059e-01</leafValues></_>
        <_>
          <internalNodes>
            0 -1 363 3.2226696610450745e-02</internalNodes>
          <leafValues>
            -9.3360930681228638e-02 5.1177942752838135e-01</leafValues></_>
        <_>
          <internalNodes>
            0 -1 776 1.5777605585753918e-04</internalNodes>
          <leafValues>
            -2.0776772499084473e-01 2.0175372064113617e-01</leafValues></_>
        <_>
          <internalNodes>
            0 -1 350 -1.2534338980913162e-02</internalNodes>
          <leafValues>
            2.6059395074844360e-01 -1.7178198695182800e-01</leafValues></_>
        <_>
          <internalNodes>
            0 -1 697 -7.7863573096692562e-03</internalNodes>
          <leafValues>
            -5.7861453294754028e-01 6.5859101712703705e-02</leafValues></_>
        <_>
          <internalNodes>
            0 -1 769 1.8673864542506635e-04</internalNodes>
          <leafValues>
            9.4455733895301819e-02 -4.5240524411201477e-01</leafValues></_>
        <_>
          <internalNodes>
            0 -1 705 -3.6449334584176540e-03</internalNodes>
          <leafValues>
            3.2180178165435791e-01 -1.4809136092662811e-01</leafValues></_>
        <_>
          <internalNodes>
            0 -1 342 9.1076362878084183e-03</internalNodes>
          <leafValues>
            -9.1248460114002228e-02 4.3372642993927002e-01</leafValues></_>
        <_>
          <internalNodes>
            0 -1 507 -7.6001361012458801e-02</internalNodes>
          <leafValues>
            -5.5999642610549927e-01 7.9170547425746918e-02</leafValues></_>
        <_>
          <internalNodes>
            0 -1 472 -2.6405192911624908e-03</internalNodes>
          <leafValues>
            -5.5863445997238159e-01 6.8316780030727386e-02</leafValues></_>
        <_>
          <internalNodes>
            0 -1 454 -2.4944739416241646e-03</internalNodes>
          <leafValues>
            5.8674854040145874e-01 -8.0934293568134308e-02</leafValues></_>
        <_>
          <internalNodes>
            0 -1 132 -3.2708181533962488e-03</internalNodes>
          <leafValues>
            2.8311014175415039e-01 -1.3980263471603394e-01</leafValues></_>
        <_>
          <internalNodes>
            0 -1 200 3.8963888073340058e-04</internalNodes>
          <leafValues>
            -1.5985432267189026e-01 2.7315229177474976e-01</leafValues></_>
        <_>
          <internalNodes>
            0 -1 216 1.3837267179042101e-03</internalNodes>
          <leafValues>
            9.6961006522178650e-02 -4.5860466361045837e-01</leafValues></_>
        <_>
          <internalNodes>
            0 -1 155 1.3273757940623909e-04</internalNodes>
          <leafValues>
            -1.6611732542514801e-01 2.6319739222526550e-01</leafValues></_>
        <_>
          <internalNodes>
            0 -1 482 6.3942221459001303e-04</internalNodes>
          <leafValues>
            -2.0140576362609863e-01 2.1288877725601196e-01</leafValues></_>
        <_>
          <internalNodes>
            0 -1 704 4.1728913784027100e-03</internalNodes>
          <leafValues>
            6.8788088858127594e-02 -6.6462230682373047e-01</leafValues></_></weakClassifiers></_>
    <!-- stage 8 -->
    <_>
      <maxWeakCount>35</maxWeakCount>
      <stageThreshold>-8.0875623226165771e-01</stageThreshold>
      <weakClassifiers>
        <_>
          <internalNodes>
            0 -1 316 -4.5711807906627655e-02</internalNodes>
          <leafValues>
            -6.2162160873413086e-01 3.1497648358345032e-01</leafValues></_>
        <_>
          <internalNodes>
            0 -1 248 -3.7754252552986145e-03</internalNodes>
          <leafValues>
            3.1240344047546387e-01 -1.5015034377574921e-01</leafValues></_>
        <_>
          <internalNodes>
            0 -1 6 -1.1330363340675831e-03</internalNodes>
          <leafValues>
            -4.9142563343048096e-01 7.7947489917278290e-02</leafValues></_>
        <_>
          <internalNodes>
            0 -1 495 3.2250173389911652e-03</internalNodes>
          <leafValues>
            -1.4872437715530396e-01 3.0858495831489563e-01</leafValues></_>
        <_>
          <internalNodes>
            0 -1 23 5.2125863730907440e-03</internalNodes>
          <leafValues>
            -1.3457144796848297e-01 3.4065198898315430e-01</leafValues></_>
        <_>
          <internalNodes>
            0 -1 540 -2.0161772146821022e-02</internalNodes>
          <leafValues>
            4.0368616580963135e-01 -1.3228319585323334e-01</leafValues></_>
        <_>
          <internalNodes>
            0 -1 26 2.8089942134101875e-05</internalNodes>
          <leafValues>
            1.6944624483585358e-01 -2.7209436893463135e-01</leafValues></_>
        <_>
          <internalNodes>
            0 -1 117 3.7279743701219559e-03</internalNodes>
          <leafValues>
            5.9932760894298553e-02 -7.4612891674041748e-01</leafValues></_>
        <_>
          <internalNodes>
            0 -1 192 9.1421417891979218e-03</internalNodes>
          <leafValues>
            3.6500550806522369e-02 -8.5011702775955200e-01</leafValues></_>
        <_>
          <internalNodes>
            0 -1 330 -3.9710812270641327e-02</internalNodes>
          <leafValues>
            4.2868489027023315e-01 -1.0421628504991531e-01</leafValues></_>
        <_>
          <internalNodes>
            0 -1 594 1.3350374996662140e-02</internalNodes>
          <leafValues>
            -5.7606410235166550e-02 5.8719760179519653e-01</leafValues></_>
        <_>
          <internalNodes>
            0 -1 607 -2.4386830773437396e-05</internalNodes>
          <leafValues>
            -2.7055129408836365e-01 1.5509773790836334e-01</leafValues></_>
        <_>
          <internalNodes>
            0 -1 630 -2.2782434825785458e-05</internalNodes>
          <leafValues>
            -2.5704661011695862e-01 1.6763718426227570e-01</leafValues></_>
        <_>
          <internalNodes>
            0 -1 170 -2.5756745599210262e-03</internalNodes>
          <leafValues>
            -5.8763581514358521e-01 6.4254038035869598e-02</leafValues></_>
        <_>
          <internalNodes>
            0 -1 574 3.9650192484259605e-03</internalNodes>
          <leafValues>
            -1.5113176405429840e-01 2.8886008262634277e-01</leafValues></_>
        <_>
          <internalNodes>
            0 -1 115 6.4286595443263650e-04</internalNodes>
          <leafValues>
            -1.7157749831676483e-01 2.7858978509902954e-01</leafValues></_>
        <_>
          <internalNodes>
            0 -1 761 -3.8170537445694208e-03</internalNodes>
          <leafValues>
            8.8401949405670166e-01 -5.3447160869836807e-02</leafValues></_>
        <_>
          <internalNodes>
            0 -1 35 -2.0499033853411674e-03</internalNodes>
          <leafValues>
            2.9235735535621643e-01 -1.3994584977626801e-01</leafValues></_>
        <_>
          <internalNodes>
            0 -1 750 -3.2596650999039412e-04</internalNodes>
          <leafValues>
            -3.8991966843605042e-01 1.1282634735107422e-01</leafValues></_>
        <_>
          <internalNodes>
            0 -1 289 -2.9992725700139999e-02</internalNodes>
          <leafValues>
            -4.3047592043876648e-01 8.8117316365242004e-02</leafValues></_>
        <_>
          <internalNodes>
            0 -1 131 -1.0308676399290562e-02</internalNodes>
          <leafValues>
            3.6426576972007751e-01 -1.3047765195369720e-01</leafValues></_>
        <_>
          <internalNodes>
            0 -1 593 -3.8056965917348862e-02</internalNodes>
          <leafValues>
            -4.4053009152412415e-01 9.9533237516880035e-02</leafValues></_>
        <_>
          <internalNodes>
            0 -1 778 -6.7224245867691934e-05</internalNodes>
          <leafValues>
            -3.4440925717353821e-01 1.2327447533607483e-01</leafValues></_>
        <_>
          <internalNodes>
            0 -1 674 2.1835476160049438e-02</internalNodes>
          <leafValues>
            6.4580306410789490e-02 -6.7063695192337036e-01</leafValues></_>
        <_>
          <internalNodes>
            0 -1 418 -6.4270952716469765e-03</internalNodes>
          <leafValues>
            5.3846037387847900e-01 -9.6538648009300232e-02</leafValues></_>
        <_>
          <internalNodes>
            0 -1 462 1.6247009625658393e-03</internalNodes>
          <leafValues>
            -1.2995000183582306e-01 3.6377975344657898e-01</leafValues></_>
        <_>
          <internalNodes>
            0 -1 551 -1.2792963534593582e-03</internalNodes>
          <leafValues>
            2.8411045670509338e-01 -1.6551636159420013e-01</leafValues></_>
        <_>
          <internalNodes>
            0 -1 337 8.1648305058479309e-03</internalNodes>
          <leafValues>
            -1.2512582540512085e-01 3.7835434079170227e-01</leafValues></_>
        <_>
          <internalNodes>
            0 -1 531 -1.3579383958131075e-03</internalNodes>
          <leafValues>
            2.9700800776481628e-01 -1.4540855586528778e-01</leafValues></_>
        <_>
          <internalNodes>
            0 -1 63 -2.4229233531514183e-05</internalNodes>
          <leafValues>
            -3.0057850480079651e-01 1.4704720675945282e-01</leafValues></_>
        <_>
          <internalNodes>
            0 -1 703 5.0907325930893421e-04</internalNodes>
          <leafValues>
            -1.7051710188388824e-01 2.7467340230941772e-01</leafValues></_>
        <_>
          <internalNodes>
            0 -1 437 1.4783773571252823e-02</internalNodes>
          <leafValues>
            6.3570924103260040e-02 -6.6179400682449341e-01</leafValues></_>
        <_>
          <internalNodes>
            0 -1 753 4.0589123964309692e-03</internalNodes>
          <leafValues>
            4.3450988829135895e-02 -8.6666029691696167e-01</leafValues></_>
        <_>
          <internalNodes>
            0 -1 339 -7.1937873959541321e-02</internalNodes>
          <leafValues>
            -8.9406651258468628e-01 3.6230277270078659e-02</leafValues></_>
        <_>
          <internalNodes>
            0 -1 458 -4.9710448365658522e-04</internalNodes>
          <leafValues>
            2.8966400027275085e-01 -1.5721973776817322e-01</leafValues></_></weakClassifiers></_>
    <!-- stage 9 -->
    <_>
      <maxWeakCount>42</maxWeakCount>
      <stageThreshold>-7.3945403099060059e-01</stageThreshold>
      <weakClassifiers>
        <_>
          <internalNodes>
            0 -1 161 -6.1207972466945648e-03</internalNodes>
          <leafValues>
            -5.7647061347961426e-01 2.9636964201927185e-01</leafValues></_>
        <_>
          <internalNodes>
            0 -1 712 -1.3568976428359747e-03</internalNodes>
          <leafValues>
            3.5330495238304138e-01 -1.2164462357759476e-01</leafValues></_>
        <_>
          <internalNodes>
            0 -1 1 -3.6025056033395231e-05</internalNodes>
          <leafValues>
            -3.3745843172073364e-01 1.2178420275449753e-01</leafValues></_>
        <_>
          <internalNodes>
            0 -1 3 4.2471091728657484e-04</internalNodes>
          <leafValues>
            7.0227019488811493e-02 -4.7377184033393860e-01</leafValues></_>
        <_>
          <internalNodes>
            0 -1 633 -9.9717043340206146e-03</internalNodes>
          <leafValues>
            4.1163176298141479e-01 -1.0252946615219116e-01</leafValues></_>
        <_>
          <internalNodes>
            0 -1 701 -1.7759108450263739e-03</internalNodes>
          <leafValues>
            3.1408935785293579e-01 -1.5115036070346832e-01</leafValues></_>
        <_>
          <internalNodes>
            0 -1 760 3.2963775098323822e-02</internalNodes>
          <leafValues>
            -1.3864263892173767e-01 3.4327572584152222e-01</leafValues></_>
        <_>
          <internalNodes>
            0 -1 353 -1.5404760837554932e-02</internalNodes>
          <leafValues>
            3.5591140389442444e-01 -1.0908833146095276e-01</leafValues></_>
        <_>
          <internalNodes>
            0 -1 203 -8.7213113903999329e-02</internalNodes>
          <leafValues>
            5.6344109773635864e-01 -6.2010720372200012e-02</leafValues></_>
        <_>
          <internalNodes>
            0 -1 59 -1.7037594690918922e-02</internalNodes>
          <leafValues>
            3.3616089820861816e-01 -1.3650390505790710e-01</leafValues></_>
        <_>
          <internalNodes>
            0 -1 18 6.5917586907744408e-03</internalNodes>
          <leafValues>
            -1.5211668610572815e-01 3.1494665145874023e-01</leafValues></_>
        <_>
          <internalNodes>
            0 -1 421 -2.9142023995518684e-03</internalNodes>
          <leafValues>
            3.8191637396812439e-01 -1.1165460199117661e-01</leafValues></_>
        <_>
          <internalNodes>
            0 -1 29 -3.2484959810972214e-03</internalNodes>
          <leafValues>
            3.4186783432960510e-01 -1.3312529027462006e-01</leafValues></_>
        <_>
          <internalNodes>
            0 -1 422 3.1740427948534489e-03</internalNodes>
          <leafValues>
            8.1555679440498352e-02 -6.6019809246063232e-01</leafValues></_>
        <_>
          <internalNodes>
            0 -1 262 2.2633194923400879e-02</internalNodes>
          <leafValues>
            -1.2773504853248596e-01 3.5905221104621887e-01</leafValues></_>
        <_>
          <internalNodes>
            0 -1 210 -2.1796487271785736e-02</internalNodes>
          <leafValues>
            -5.4926526546478271e-01 1.1601294577121735e-01</leafValues></_>
        <_>
          <internalNodes>
            0 -1 618 3.6208527162671089e-03</internalNodes>
          <leafValues>
            -1.6046470403671265e-01 2.8487381339073181e-01</leafValues></_>
        <_>
          <internalNodes>
            0 -1 715 1.4125011512078345e-04</internalNodes>
          <leafValues>
            1.3223333656787872e-01 -3.2841086387634277e-01</leafValues></_>
        <_>
          <internalNodes>
            0 -1 573 -4.3149031698703766e-03</internalNodes>
          <leafValues>
            3.1679216027259827e-01 -1.2703084945678711e-01</leafValues></_>
        <_>
          <internalNodes>
            0 -1 98 1.3439973372442182e-05</internalNodes>
          <leafValues>
            1.3834759593009949e-01 -2.7935406565666199e-01</leafValues></_>
        <_>
          <internalNodes>
            0 -1 504 -2.0854123868048191e-03</internalNodes>
          <leafValues>
            4.0709063410758972e-01 -9.9912665784358978e-02</leafValues></_>
        <_>
          <internalNodes>
            0 -1 644 -1.1699049174785614e-01</internalNodes>
          <leafValues>
            4.9520593881607056e-01 -7.5590737164020538e-02</leafValues></_>
        <_>
          <internalNodes>
            0 -1 448 -2.6345551013946533e-03</internalNodes>
          <leafValues>
            3.9863377809524536e-01 -9.1737888753414154e-02</leafValues></_>
        <_>
          <internalNodes>
            0 -1 447 5.2999530453234911e-04</internalNodes>
          <leafValues>
            -1.7441406846046448e-01 2.9375496506690979e-01</leafValues></_>
        <_>
          <internalNodes>
            0 -1 570 -3.2888587564229965e-02</internalNodes>
          <leafValues>
            3.1943419575691223e-01 -1.2682546675205231e-01</leafValues></_>
        <_>
          <internalNodes>
            0 -1 611 -1.3724155724048615e-03</internalNodes>
          <leafValues>
            4.5622259378433228e-01 -9.2965379357337952e-02</leafValues></_>
        <_>
          <internalNodes>
            0 -1 172 4.8351855948567390e-03</internalNodes>
          <leafValues>
            1.0235305130481720e-01 -4.4741854071617126e-01</leafValues></_>
        <_>
          <internalNodes>
            0 -1 257 9.1750780120491982e-04</internalNodes>
          <leafValues>
            -1.4060497283935547e-01 3.0173057317733765e-01</leafValues></_>
        <_>
          <internalNodes>
            0 -1 433 -1.2266382109373808e-03</internalNodes>
          <leafValues>
            -5.6837350130081177e-01 7.9344838857650757e-02</leafValues></_>
        <_>
          <internalNodes>
            0 -1 240 -3.4700910327956080e-04</internalNodes>
          <leafValues>
            -3.7980839610099792e-01 1.0301429033279419e-01</leafValues></_>
        <_>
          <internalNodes>
            0 -1 428 5.1144615281373262e-04</internalNodes>
          <leafValues>
            -6.3251264393329620e-02 6.6917306184768677e-01</leafValues></_>
        <_>
          <internalNodes>
            0 -1 489 -4.9471752718091011e-03</internalNodes>
          <leafValues>
            5.1157653331756592e-01 -7.0916198194026947e-02</leafValues></_>
        <_>
          <internalNodes>
            0 -1 770 5.5073702242225409e-04</internalNodes>
          <leafValues>
            8.9620545506477356e-02 -5.1402968168258667e-01</leafValues></_>
        <_>
          <internalNodes>
            0 -1 135 8.3949044346809387e-03</internalNodes>
          <leafValues>
            -1.1132909357547760e-01 3.9859169721603394e-01</leafValues></_>
        <_>
          <internalNodes>
            0 -1 243 1.2687534326687455e-03</internalNodes>
          <leafValues>
            -1.7935740947723389e-01 2.6309040188789368e-01</leafValues></_>
        <_>
          <internalNodes>
            0 -1 58 -7.1882987394928932e-03</internalNodes>
          <leafValues>
            -7.5264298915863037e-01 5.9512354433536530e-02</leafValues></_>
        <_>
          <internalNodes>
            0 -1 213 3.8559819586225785e-06</internalNodes>
          <leafValues>
            -2.4649608135223389e-01 1.8102873861789703e-01</leafValues></_>
        <_>
          <internalNodes>
            0 -1 158 1.5884872525930405e-02</internalNodes>
          <leafValues>
            9.1037034988403320e-02 -4.8767507076263428e-01</leafValues></_>
        <_>
          <internalNodes>
            0 -1 318 7.1437039878219366e-04</internalNodes>
          <leafValues>
            -2.0166400074958801e-01 2.2169055044651031e-01</leafValues></_>
        <_>
          <internalNodes>
            0 -1 416 3.1523924553766847e-04</internalNodes>
          <leafValues>
            1.0287069529294968e-01 -5.3764754533767700e-01</leafValues></_>
        <_>
          <internalNodes>
            0 -1 164 2.3767547099851072e-04</internalNodes>
          <leafValues>
            -2.0042753219604492e-01 2.2686852514743805e-01</leafValues></_>
        <_>
          <internalNodes>
            0 -1 413 1.4303764328360558e-03</internalNodes>
          <leafValues>
            -1.0794266313314438e-01 3.9805397391319275e-01</leafValues></_></weakClassifiers></_>
    <!-- stage 10 -->
    <_>
      <maxWeakCount>53</maxWeakCount>
      <stageThreshold>-7.9821950197219849e-01</stageThreshold>
      <weakClassifiers>
        <_>
          <internalNodes>
            0 -1 244 -4.2503789067268372e-02</internalNodes>
          <leafValues>
            -3.8028168678283691e-01 3.1138545274734497e-01</leafValues></_>
        <_>
          <internalNodes>
            0 -1 183 -4.5462086796760559e-02</internalNodes>
          <leafValues>
            9.3550425767898560e-01 -2.9448807254084386e-05</leafValues></_>
        <_>
          <internalNodes>
            0 -1 183 -4.5113936066627502e-02</internalNodes>
          <leafValues>
            -1. 2.0040080416947603e-03</leafValues></_>
        <_>
          <internalNodes>
            0 -1 183 -4.4505164027214050e-02</internalNodes>
          <leafValues>
            9.4444030523300171e-01 -1.6104623209685087e-03</leafValues></_>
        <_>
          <internalNodes>
            0 -1 183 -4.4160582125186920e-02</internalNodes>
          <leafValues>
            -1. 3.0211466364562511e-03</leafValues></_>
        <_>
          <internalNodes>
            0 -1 183 -4.3960087001323700e-02</internalNodes>
          <leafValues>
            9.5123708248138428e-01 -1.6172569012269378e-03</leafValues></_>
        <_>
          <internalNodes>
            0 -1 183 -4.3936334550380707e-02</internalNodes>
          <leafValues>
            -1. 1.0111209703609347e-03</leafValues></_>
        <_>
          <internalNodes>
            0 -1 183 -4.3504104018211365e-02</internalNodes>
          <leafValues>
            9.5687848329544067e-01 -2.1645226515829563e-03</leafValues></_>
        <_>
          <internalNodes>
            0 -1 183 -4.3425746262073517e-02</internalNodes>
          <leafValues>
            -1. 1.0131679009646177e-03</leafValues></_>
        <_>
          <internalNodes>
            0 -1 183 -4.3388739228248596e-02</internalNodes>
          <leafValues>
            9.6062916517257690e-01 -5.4259848548099399e-04</leafValues></_>
        <_>
          <internalNodes>
            0 -1 183 -4.3315395712852478e-02</internalNodes>
          <leafValues>
            -1. 1.0152283357456326e-03</leafValues></_>
        <_>
          <internalNodes>
            0 -1 183 -4.3248448520898819e-02</internalNodes>
          <leafValues>
            9.6378320455551147e-01 -5.4318795446306467e-04</leafValues></_>
        <_>
          <internalNodes>
            0 -1 183 -4.2660228908061981e-02</internalNodes>
          <leafValues>
            -9.9012440443038940e-01 2.5143290404230356e-03</leafValues></_>
        <_>
          <internalNodes>
            0 -1 183 -4.2332898825407028e-02</internalNodes>
          <leafValues>
            9.6656239032745361e-01 -1.0893298313021660e-03</leafValues></_>
        <_>
          <internalNodes>
            0 -1 183 -4.1912540793418884e-02</internalNodes>
          <leafValues>
            -6.6264867782592773e-01 2.0491799805313349e-03</leafValues></_>
        <_>
          <internalNodes>
            0 -1 415 2.4640999734401703e-02</internalNodes>
          <leafValues>
            5.5160559713840485e-02 -7.7327960729598999e-01</leafValues></_>
        <_>
          <internalNodes>
            0 -1 362 -1.6156673431396484e-02</internalNodes>
          <leafValues>
            3.4170645475387573e-01 -1.0919515043497086e-01</leafValues></_>
        <_>
          <internalNodes>
            0 -1 69 1.2770289182662964e-01</internalNodes>
          <leafValues>
            -9.5255821943283081e-02 4.0862512588500977e-01</leafValues></_>
        <_>
          <internalNodes>
            0 -1 101 -2.7256007306277752e-03</internalNodes>
          <leafValues>
            3.6310425400733948e-01 -1.2090735882520676e-01</leafValues></_>
        <_>
          <internalNodes>
            0 -1 328 1.2001496739685535e-02</internalNodes>
          <leafValues>
            -1.3309700787067413e-01 3.2028105854988098e-01</leafValues></_>
        <_>
          <internalNodes>
            0 -1 302 -2.5572748854756355e-03</internalNodes>
          <leafValues>
            3.3624970912933350e-01 -9.7833864390850067e-02</leafValues></_>
        <_>
          <internalNodes>
            0 -1 404 -7.0182010531425476e-03</internalNodes>
          <leafValues>
            3.6478447914123535e-01 -8.6368001997470856e-02</leafValues></_>
        <_>
          <internalNodes>
            0 -1 518 2.5565600953996181e-03</internalNodes>
          <leafValues>
            -1.8813304603099823e-01 2.2185699641704559e-01</leafValues></_>
        <_>
          <internalNodes>
            0 -1 577 3.2305973581969738e-03</internalNodes>
          <leafValues>
            7.8674182295799255e-02 -6.2576788663864136e-01</leafValues></_>
        <_>
          <internalNodes>
            0 -1 603 2.5045266374945641e-03</internalNodes>
          <leafValues>
            -1.2830574810504913e-01 3.2561385631561279e-01</leafValues></_>
        <_>
          <internalNodes>
            0 -1 543 -2.0751515403389931e-02</internalNodes>
          <leafValues>
            3.7439355254173279e-01 -1.0569313913583755e-01</leafValues></_>
        <_>
          <internalNodes>
            0 -1 765 -1.5686180267948657e-04</internalNodes>
          <leafValues>
            -3.1976249814033508e-01 1.2850493192672729e-01</leafValues></_>
        <_>
          <internalNodes>
            0 -1 199 2.6344109792262316e-03</internalNodes>
          <leafValues>
            -4.7981645911931992e-02 7.2030490636825562e-01</leafValues></_>
        <_>
          <internalNodes>
            0 -1 86 9.5022972673177719e-03</internalNodes>
          <leafValues>
            6.9038905203342438e-02 -6.0260504484176636e-01</leafValues></_>
        <_>
          <internalNodes>
            0 -1 240 1.0824981145560741e-03</internalNodes>
          <leafValues>
            5.7718347758054733e-02 -5.9271806478500366e-01</leafValues></_>
        <_>
          <internalNodes>
            0 -1 425 -3.9721004664897919e-02</internalNodes>
          <leafValues>
            -7.8315240144729614e-01 4.7242302447557449e-02</leafValues></_>
        <_>
          <internalNodes>
            0 -1 367 1.0579640045762062e-02</internalNodes>
          <leafValues>
            8.6254686117172241e-02 -4.1057279706001282e-01</leafValues></_>
        <_>
          <internalNodes>
            0 -1 173 -5.4602885938948020e-05</internalNodes>
          <leafValues>
            2.4424189329147339e-01 -1.5416155755519867e-01</leafValues></_>
        <_>
          <internalNodes>
            0 -1 533 7.3493365198373795e-04</internalNodes>
          <leafValues>
            -1.5502142906188965e-01 2.4844241142272949e-01</leafValues></_>
        <_>
          <internalNodes>
            0 -1 2 -1.0731199290603399e-03</internalNodes>
          <leafValues>
            -3.1954824924468994e-01 1.3030494749546051e-01</leafValues></_>
        <_>
          <internalNodes>
            0 -1 17 4.2661018669605255e-03</internalNodes>
          <leafValues>
            -1.5292811393737793e-01 2.5803023576736450e-01</leafValues></_>
        <_>
          <internalNodes>
            0 -1 527 -4.4308812357485294e-04</internalNodes>
          <leafValues>
            2.5468668341636658e-01 -1.5399773418903351e-01</leafValues></_>
        <_>
          <internalNodes>
            0 -1 222 -7.4160307121928781e-05</internalNodes>
          <leafValues>
            -3.1840437650680542e-01 1.2196244299411774e-01</leafValues></_>
        <_>
          <internalNodes>
            0 -1 294 1.8811203539371490e-02</internalNodes>
          <leafValues>
            -1.0315982997417450e-01 3.6093774437904358e-01</leafValues></_>
        <_>
          <internalNodes>
            0 -1 389 9.0072415769100189e-03</internalNodes>
          <leafValues>
            -8.8022030889987946e-02 4.7352209687232971e-01</leafValues></_>
        <_>
          <internalNodes>
            0 -1 699 -1.5166923403739929e-02</internalNodes>
          <leafValues>
            -5.9264022111892700e-01 7.4530445039272308e-02</leafValues></_>
        <_>
          <internalNodes>
            0 -1 696 5.0019565969705582e-04</internalNodes>
          <leafValues>
            -1.5610748529434204e-01 2.8825283050537109e-01</leafValues></_>
        <_>
          <internalNodes>
            0 -1 207 2.9826629906892776e-03</internalNodes>
          <leafValues>
            4.6696968376636505e-02 -8.8010865449905396e-01</leafValues></_>
        <_>
          <internalNodes>
            0 -1 592 4.9840030260384083e-04</internalNodes>
          <leafValues>
            -1.6363386809825897e-01 2.4870344996452332e-01</leafValues></_>
        <_>
          <internalNodes>
            0 -1 285 1.5148285310715437e-03</internalNodes>
          <leafValues>
            -8.8584594428539276e-02 4.0533581376075745e-01</leafValues></_>
        <_>
          <internalNodes>
            0 -1 538 -6.3569852500222623e-05</internalNodes>
          <leafValues>
            -3.2144391536712646e-01 1.4685729146003723e-01</leafValues></_>
        <_>
          <internalNodes>
            0 -1 368 1.4367455150932074e-03</internalNodes>
          <leafValues>
            -1.0922847688198090e-01 3.7452089786529541e-01</leafValues></_>
        <_>
          <internalNodes>
            0 -1 410 4.3606683611869812e-03</internalNodes>
          <leafValues>
            6.3910767436027527e-02 -6.5929144620895386e-01</leafValues></_>
        <_>
          <internalNodes>
            0 -1 287 2.7401517145335674e-03</internalNodes>
          <leafValues>
            -1.1810104548931122e-01 3.6377862095832825e-01</leafValues></_>
        <_>
          <internalNodes>
            0 -1 539 2.8180138906463981e-04</internalNodes>
          <leafValues>
            1.1228594183921814e-01 -3.8920477032661438e-01</leafValues></_>
        <_>
          <internalNodes>
            0 -1 238 -3.0719723552465439e-02</internalNodes>
          <leafValues>
            -4.5910680294036865e-01 8.2563281059265137e-02</leafValues></_>
        <_>
          <internalNodes>
            0 -1 284 -1.4903596602380276e-03</internalNodes>
          <leafValues>
            3.1612843275070190e-01 -1.4566968381404877e-01</leafValues></_>
        <_>
          <internalNodes>
            0 -1 524 4.6205194666981697e-04</internalNodes>
          <leafValues>
            -2.0901297032833099e-01 2.0973457396030426e-01</leafValues></_></weakClassifiers></_>
    <!-- stage 11 -->
    <_>
      <maxWeakCount>50</maxWeakCount>
      <stageThreshold>-8.1104212999343872e-01</stageThreshold>
      <weakClassifiers>
        <_>
          <internalNodes>
            0 -1 426 -1.3677150942385197e-02</internalNodes>
          <leafValues>
            -3.9655172824859619e-01 3.0053907632827759e-01</leafValues></_>
        <_>
          <internalNodes>
            0 -1 206 4.6031117439270020e-02</internalNodes>
          <leafValues>
            -1.7627811059355736e-02 6.4677029848098755e-01</leafValues></_>
        <_>
          <internalNodes>
            0 -1 290 1.2485891580581665e-02</internalNodes>
          <leafValues>
            -1.6695843636989594e-01 2.7523347735404968e-01</leafValues></_>
        <_>
          <internalNodes>
            0 -1 157 2.7895074337720871e-02</internalNodes>
          <leafValues>
            5.5665981024503708e-02 -6.2716567516326904e-01</leafValues></_>
        <_>
          <internalNodes>
            0 -1 587 -4.4287475757300854e-03</internalNodes>
          <leafValues>
            -6.5911436080932617e-01 5.7094346731901169e-02</leafValues></_>
        <_>
          <internalNodes>
            0 -1 777 2.2310670465230942e-04</internalNodes>
          <leafValues>
            -1.7560991644859314e-01 2.0450706779956818e-01</leafValues></_>
        <_>
          <internalNodes>
            0 -1 113 -2.0341530907899141e-03</internalNodes>
          <leafValues>
            2.2352559864521027e-01 -1.4883296191692352e-01</leafValues></_>
        <_>
          <internalNodes>
            0 -1 560 -4.4832941144704819e-02</internalNodes>
          <leafValues>
            -5.1015484333038330e-01 7.0342697203159332e-02</leafValues></_>
        <_>
          <internalNodes>
            0 -1 156 3.5607330501079559e-03</internalNodes>
          <leafValues>
            7.6765626668930054e-02 -4.6575224399566650e-01</leafValues></_>
        <_>
          <internalNodes>
            0 -1 377 1.0047951713204384e-02</internalNodes>
          <leafValues>
            -1.3139408826828003e-01 3.4322357177734375e-01</leafValues></_>
        <_>
          <internalNodes>
            0 -1 576 2.1314395125955343e-03</internalNodes>
          <leafValues>
            7.3526553809642792e-02 -5.7453727722167969e-01</leafValues></_>
        <_>
          <internalNodes>
            0 -1 497 -5.1465854048728943e-03</internalNodes>
          <leafValues>
            4.8199126124382019e-01 -7.8749865293502808e-02</leafValues></_>
        <_>
          <internalNodes>
            0 -1 737 -1.2503612088039517e-03</internalNodes>
          <leafValues>
            6.9348025321960449e-01 -5.5868394672870636e-02</leafValues></_>
        <_>
          <internalNodes>
            0 -1 595 -4.8074829392135143e-03</internalNodes>
          <leafValues>
            -8.7851792573928833e-01 5.5865637958049774e-02</leafValues></_>
        <_>
          <internalNodes>
            0 -1 343 -5.9490408748388290e-03</internalNodes>
          <leafValues>
            2.4113772809505463e-01 -1.5203501284122467e-01</leafValues></_>
        <_>
          <internalNodes>
            0 -1 519 2.0811499562114477e-03</internalNodes>
          <leafValues>
            -1.7106339335441589e-01 2.1603272855281830e-01</leafValues></_>
        <_>
          <internalNodes>
            0 -1 555 1.1085820733569562e-04</internalNodes>
          <leafValues>
            -1.7933550477027893e-01 2.2234599292278290e-01</leafValues></_>
        <_>
          <internalNodes>
            0 -1 397 4.0538631379604340e-02</internalNodes>
          <leafValues>
            6.6523507237434387e-02 -6.5501260757446289e-01</leafValues></_>
        <_>
          <internalNodes>
            0 -1 398 2.9608266777358949e-04</internalNodes>
          <leafValues>
            -1.5551155805587769e-01 2.6220312714576721e-01</leafValues></_>
        <_>
          <internalNodes>
            0 -1 263 -7.1803256869316101e-02</internalNodes>
          <leafValues>
            -7.1514338254928589e-01 5.3444765508174896e-02</leafValues></_>
        <_>
          <internalNodes>
            0 -1 597 7.9076259862631559e-04</internalNodes>
          <leafValues>
            -1.5310479700565338e-01 2.4019202589988708e-01</leafValues></_>
        <_>
          <internalNodes>
            0 -1 118 -6.1684369575232267e-04</internalNodes>
          <leafValues>
            2.4728761613368988e-01 -1.5342062711715698e-01</leafValues></_>
        <_>
          <internalNodes>
            0 -1 116 -4.2195453715976328e-05</internalNodes>
          <leafValues>
            -3.5833886265754700e-01 1.0945320129394531e-01</leafValues></_>
        <_>
          <internalNodes>
            0 -1 444 -2.5460586766712368e-04</internalNodes>
          <leafValues>
            -2.7502208948135376e-01 1.4208829402923584e-01</leafValues></_>
        <_>
          <internalNodes>
            0 -1 558 -7.0561276515945792e-05</internalNodes>
          <leafValues>
            2.6518371701240540e-01 -1.3981409370899200e-01</leafValues></_>
        <_>
          <internalNodes>
            0 -1 174 8.7477825582027435e-03</internalNodes>
          <leafValues>
            -1.0584624856710434e-01 3.6099192500114441e-01</leafValues></_>
        <_>
          <internalNodes>
            0 -1 757 -5.1121478900313377e-03</internalNodes>
          <leafValues>
            3.0286848545074463e-01 -1.2336358428001404e-01</leafValues></_>
        <_>
          <internalNodes>
            0 -1 707 1.2805224396288395e-03</internalNodes>
          <leafValues>
            -1.5928180515766144e-01 2.4790914356708527e-01</leafValues></_>
        <_>
          <internalNodes>
            0 -1 251 4.3325023725628853e-03</internalNodes>
          <leafValues>
            5.4026018828153610e-02 -6.8192428350448608e-01</leafValues></_>
        <_>
          <internalNodes>
            0 -1 136 6.2552472809329629e-04</internalNodes>
          <leafValues>
            -1.8073356151580811e-01 1.9466540217399597e-01</leafValues></_>
        <_>
          <internalNodes>
            0 -1 209 4.4303495087660849e-05</internalNodes>
          <leafValues>
            1.6213916242122650e-01 -2.7154383063316345e-01</leafValues></_>
        <_>
          <internalNodes>
            0 -1 465 7.0636312011629343e-04</internalNodes>
          <leafValues>
            -9.4192400574684143e-02 4.0088319778442383e-01</leafValues></_>
        <_>
          <internalNodes>
            0 -1 407 2.5803027674555779e-03</internalNodes>
          <leafValues>
            -9.7765848040580750e-02 3.7678003311157227e-01</leafValues></_>
        <_>
          <internalNodes>
            0 -1 245 1.6514875460416079e-03</internalNodes>
          <leafValues>
            -1.9201087951660156e-01 2.0556397736072540e-01</leafValues></_>
        <_>
          <internalNodes>
            0 -1 528 -1.4320933260023594e-03</internalNodes>
          <leafValues>
            -4.7142514586448669e-01 8.8968791067600250e-02</leafValues></_>
        <_>
          <internalNodes>
            0 -1 775 -1.1712693958543241e-04</internalNodes>
          <leafValues>
            -3.2052141427993774e-01 1.1684140563011169e-01</leafValues></_>
        <_>
          <internalNodes>
            0 -1 65 -1.4027088182047009e-03</internalNodes>
          <leafValues>
            2.8608277440071106e-01 -1.3154155015945435e-01</leafValues></_>
        <_>
          <internalNodes>
            0 -1 438 4.1512941243126988e-04</internalNodes>
          <leafValues>
            -1.8881253898143768e-01 2.1159264445304871e-01</leafValues></_>
        <_>
          <internalNodes>
            0 -1 608 1.3913249131292105e-03</internalNodes>
          <leafValues>
            5.3571745753288269e-02 -7.3372310400009155e-01</leafValues></_>
        <_>
          <internalNodes>
            0 -1 212 -7.9223347711376846e-05</internalNodes>
          <leafValues>
            -3.4242156147956848e-01 9.9224396049976349e-02</leafValues></_>
        <_>
          <internalNodes>
            0 -1 722 4.8472086200490594e-04</internalNodes>
          <leafValues>
            -2.0249786972999573e-01 1.8836930394172668e-01</leafValues></_>
        <_>
          <internalNodes>
            0 -1 321 1.4823001110926270e-03</internalNodes>
          <leafValues>
            -1.1913938820362091e-01 3.2173150777816772e-01</leafValues></_>
        <_>
          <internalNodes>
            0 -1 747 1.3494148151949048e-04</internalNodes>
          <leafValues>
            1.1151588708162308e-01 -3.7037453055381775e-01</leafValues></_>
        <_>
          <internalNodes>
            0 -1 80 -3.6503688897937536e-04</internalNodes>
          <leafValues>
            4.3704843521118164e-01 -8.8764712214469910e-02</leafValues></_>
        <_>
          <internalNodes>
            0 -1 38 2.6910183951258659e-03</internalNodes>
          <leafValues>
            -1.2412903457880020e-01 3.0792337656021118e-01</leafValues></_>
        <_>
          <internalNodes>
            0 -1 619 1.3391387183219194e-03</internalNodes>
          <leafValues>
            8.3320401608943939e-02 -4.5384502410888672e-01</leafValues></_>
        <_>
          <internalNodes>
            0 -1 634 -5.1348796114325523e-04</internalNodes>
          <leafValues>
            3.0262956023216248e-01 -1.2235271185636520e-01</leafValues></_>
        <_>
          <internalNodes>
            0 -1 756 -1.3455114094540477e-03</internalNodes>
          <leafValues>
            -5.3323131799697876e-01 6.9825440645217896e-02</leafValues></_>
        <_>
          <internalNodes>
            0 -1 374 -1.8677998334169388e-02</internalNodes>
          <leafValues>
            -7.2964119911193848e-01 4.9395218491554260e-02</leafValues></_>
        <_>
          <internalNodes>
            0 -1 27 1.0527670383453369e-01</internalNodes>
          <leafValues>
            -7.1552157402038574e-02 5.9922707080841064e-01</leafValues></_></weakClassifiers></_>
    <!-- stage 12 -->
    <_>
      <maxWeakCount>49</maxWeakCount>
      <stageThreshold>-9.2906099557876587e-01</stageThreshold>
      <weakClassifiers>
        <_>
          <internalNodes>
            0 -1 139 1.2463701423257589e-03</internalNodes>
          <leafValues>
            3.1818181276321411e-01 -2.5000000000000000e-01</leafValues></_>
        <_>
          <internalNodes>
            0 -1 463 1.1117651592940092e-03</internalNodes>
          <leafValues>
            -1.0639929026365280e-01 3.3197799324989319e-01</leafValues></_>
        <_>
          <internalNodes>
            0 -1 525 5.9955366887152195e-03</internalNodes>
          <leafValues>
            -9.5091938972473145e-02 3.3221015334129333e-01</leafValues></_>
        <_>
          <internalNodes>
            0 -1 171 -8.3923878264613450e-05</internalNodes>
          <leafValues>
            -2.9617080092430115e-01 1.0218507051467896e-01</leafValues></_>
        <_>
          <internalNodes>
            0 -1 392 8.1645778845995665e-04</internalNodes>
          <leafValues>
            7.5666211545467377e-02 -5.1679152250289917e-01</leafValues></_>
        <_>
          <internalNodes>
            0 -1 317 2.7596956118941307e-02</internalNodes>
          <leafValues>
            5.7216219604015350e-02 -5.4875206947326660e-01</leafValues></_>
        <_>
          <internalNodes>
            0 -1 605 5.4348525591194630e-03</internalNodes>
          <leafValues>
            -1.1859780550003052e-01 3.0967456102371216e-01</leafValues></_>
        <_>
          <internalNodes>
            0 -1 772 2.7443612925708294e-03</internalNodes>
          <leafValues>
            6.4643494784832001e-02 -5.7221549749374390e-01</leafValues></_>
        <_>
          <internalNodes>
            0 -1 572 3.3939653076231480e-03</internalNodes>
          <leafValues>
            7.1399927139282227e-02 -4.1840061545372009e-01</leafValues></_>
        <_>
          <internalNodes>
            0 -1 612 -5.9381662867963314e-04</internalNodes>
          <leafValues>
            2.6626938581466675e-01 -1.4341790974140167e-01</leafValues></_>
        <_>
          <internalNodes>
            0 -1 345 -5.9989136643707752e-03</internalNodes>
          <leafValues>
            5.3342670202255249e-01 -6.9285050034523010e-02</leafValues></_>
        <_>
          <internalNodes>
            0 -1 754 3.0426105950027704e-03</internalNodes>
          <leafValues>
            5.1993556320667267e-02 -7.6684552431106567e-01</leafValues></_>
        <_>
          <internalNodes>
            0 -1 234 -8.2267105579376221e-02</internalNodes>
          <leafValues>
            -6.4695441722869873e-01 5.4384417831897736e-02</leafValues></_>
        <_>
          <internalNodes>
            0 -1 274 5.0150323659181595e-04</internalNodes>
          <leafValues>
            -1.4691805839538574e-01 2.5568187236785889e-01</leafValues></_>
        <_>
          <internalNodes>
            0 -1 81 7.6794519554823637e-04</internalNodes>
          <leafValues>
            -1.3192428648471832e-01 2.7778384089469910e-01</leafValues></_>
        <_>
          <internalNodes>
            0 -1 601 1.1390844883862883e-04</internalNodes>
          <leafValues>
            9.9616482853889465e-02 -3.4261885285377502e-01</leafValues></_>
        <_>
          <internalNodes>
            0 -1 548 1.7187807243317366e-03</internalNodes>
          <leafValues>
            -1.4904557168483734e-01 2.7276879549026489e-01</leafValues></_>
        <_>
          <internalNodes>
            0 -1 134 -5.6616707297507674e-05</internalNodes>
          <leafValues>
            -2.8311330080032349e-01 1.2484021484851837e-01</leafValues></_>
        <_>
          <internalNodes>
            0 -1 126 -2.5933384895324707e-03</internalNodes>
          <leafValues>
            2.2583779692649841e-01 -1.5704399347305298e-01</leafValues></_>
        <_>
          <internalNodes>
            0 -1 477 1.2922935420647264e-03</internalNodes>
          <leafValues>
            -1.2151925265789032e-01 2.8528833389282227e-01</leafValues></_>
        <_>
          <internalNodes>
            0 -1 556 -4.6058832667768002e-03</internalNodes>
          <leafValues>
            3.1699573993682861e-01 -1.2083610147237778e-01</leafValues></_>
        <_>
          <internalNodes>
            0 -1 452 -9.2919319868087769e-03</internalNodes>
          <leafValues>
            3.0635640025138855e-01 -1.4620453119277954e-01</leafValues></_>
        <_>
          <internalNodes>
            0 -1 261 3.5314485430717468e-03</internalNodes>
          <leafValues>
            9.0721666812896729e-02 -4.6519067883491516e-01</leafValues></_>
        <_>
          <internalNodes>
            0 -1 211 2.1864844893570989e-04</internalNodes>
          <leafValues>
            1.2162218242883682e-01 -2.8853416442871094e-01</leafValues></_>
        <_>
          <internalNodes>
            0 -1 381 -2.7183194106328301e-05</internalNodes>
          <leafValues>
            -2.2689415514469147e-01 1.6344918310642242e-01</leafValues></_>
        <_>
          <internalNodes>
            0 -1 385 6.2055233865976334e-03</internalNodes>
          <leafValues>
            -8.6190901696681976e-02 4.9366310238838196e-01</leafValues></_>
        <_>
          <internalNodes>
            0 -1 514 1.1844878317788243e-03</internalNodes>
          <leafValues>
            -1.1296499520540237e-01 3.3314323425292969e-01</leafValues></_>
        <_>
          <internalNodes>
            0 -1 129 -5.5853547528386116e-03</internalNodes>
          <leafValues>
            3.5352542996406555e-01 -1.0825273394584656e-01</leafValues></_>
        <_>
          <internalNodes>
            0 -1 758 4.3647155165672302e-02</internalNodes>
          <leafValues>
            -8.4891676902770996e-02 4.8302915692329407e-01</leafValues></_>
        <_>
          <internalNodes>
            0 -1 578 -1.3044920342508703e-04</internalNodes>
          <leafValues>
            -2.7524286508560181e-01 1.4239619672298431e-01</leafValues></_>
        <_>
          <internalNodes>
            0 -1 650 9.0574901551008224e-03</internalNodes>
          <leafValues>
            -9.2242732644081116e-02 4.3798670172691345e-01</leafValues></_>
        <_>
          <internalNodes>
            0 -1 632 3.3733166754245758e-02</internalNodes>
          <leafValues>
            -6.9067746400833130e-02 5.7182484865188599e-01</leafValues></_>
        <_>
          <internalNodes>
            0 -1 371 -3.2620609272271395e-03</internalNodes>
          <leafValues>
            -6.5777909755706787e-01 6.6819481551647186e-02</leafValues></_>
        <_>
          <internalNodes>
            0 -1 5 -1.2960078893229365e-03</internalNodes>
          <leafValues>
            -6.2730020284652710e-01 5.7620901614427567e-02</leafValues></_>
        <_>
          <internalNodes>
            0 -1 375 -3.7189994007349014e-02</internalNodes>
          <leafValues>
            -8.0301922559738159e-01 4.3301351368427277e-02</leafValues></_>
        <_>
          <internalNodes>
            0 -1 641 4.8200376331806183e-03</internalNodes>
          <leafValues>
            -1.5601596236228943e-01 2.4626511335372925e-01</leafValues></_>
        <_>
          <internalNodes>
            0 -1 491 2.5627133436501026e-04</internalNodes>
          <leafValues>
            -2.0259064435958862e-01 1.9354523718357086e-01</leafValues></_>
        <_>
          <internalNodes>
            0 -1 306 6.5241217613220215e-02</internalNodes>
          <leafValues>
            -5.8159429579973221e-02 6.7141544818878174e-01</leafValues></_>
        <_>
          <internalNodes>
            0 -1 744 -5.3747333586215973e-03</internalNodes>
          <leafValues>
            -6.7051357030868530e-01 6.3625872135162354e-02</leafValues></_>
        <_>
          <internalNodes>
            0 -1 579 1.3518711784854531e-03</internalNodes>
          <leafValues>
            -1.3179069757461548e-01 3.4946867823600769e-01</leafValues></_>
        <_>
          <internalNodes>
            0 -1 119 -6.4804255962371826e-03</internalNodes>
          <leafValues>
            -5.7977038621902466e-01 7.0139527320861816e-02</leafValues></_>
        <_>
          <internalNodes>
            0 -1 281 9.0214256197214127e-03</internalNodes>
          <leafValues>
            -8.4318399429321289e-02 4.4365087151527405e-01</leafValues></_>
        <_>
          <internalNodes>
            0 -1 461 -5.4093495011329651e-02</internalNodes>
          <leafValues>
            -6.2608003616333008e-01 6.5634593367576599e-02</leafValues></_>
        <_>
          <internalNodes>
            0 -1 529 6.5582775278016925e-04</internalNodes>
          <leafValues>
            -1.3512796163558960e-01 2.9841163754463196e-01</leafValues></_>
        <_>
          <internalNodes>
            0 -1 151 1.0535635054111481e-02</internalNodes>
          <leafValues>
            -9.5655769109725952e-02 3.9118078351020813e-01</leafValues></_>
        <_>
          <internalNodes>
            0 -1 383 2.2766091860830784e-03</internalNodes>
          <leafValues>
            -9.1381765902042389e-02 3.8024598360061646e-01</leafValues></_>
        <_>
          <internalNodes>
            0 -1 730 1.5492036938667297e-02</internalNodes>
          <leafValues>
            6.5171740949153900e-02 -6.6902047395706177e-01</leafValues></_>
        <_>
          <internalNodes>
            0 -1 267 -1.9440917822066694e-04</internalNodes>
          <leafValues>
            -4.2869362235069275e-01 9.2418760061264038e-02</leafValues></_>
        <_>
          <internalNodes>
            0 -1 187 5.3259870037436485e-04</internalNodes>
          <leafValues>
            -1.7987571656703949e-01 2.3772805929183960e-01</leafValues></_></weakClassifiers></_>
    <!-- stage 13 -->
    <_>
      <maxWeakCount>45</maxWeakCount>
      <stageThreshold>-7.6420098543167114e-01</stageThreshold>
      <weakClassifiers>
        <_>
          <internalNodes>
            0 -1 430 1.4685052447021008e-03</internalNodes>
          <leafValues>
            3.1679660081863403e-01 -2.4867725372314453e-01</leafValues></_>
        <_>
          <internalNodes>
            0 -1 763 -4.6037801075726748e-04</internalNodes>
          <leafValues>
            2.3772157728672028e-01 -1.3344831764698029e-01</leafValues></_>
        <_>
          <internalNodes>
            0 -1 77 -5.1737534813582897e-03</internalNodes>
          <leafValues>
            3.5271918773651123e-01 -9.0843662619590759e-02</leafValues></_>
        <_>
          <internalNodes>
            0 -1 100 2.4097822606563568e-03</internalNodes>
          <leafValues>
            -1.7987276613712311e-01 2.6970964670181274e-01</leafValues></_>
        <_>
          <internalNodes>
            0 -1 99 -1.1632073670625687e-02</internalNodes>
          <leafValues>
            4.2270314693450928e-01 -3.6819666624069214e-02</leafValues></_>
        <_>
          <internalNodes>
            0 -1 106 1.0821362957358360e-03</internalNodes>
          <leafValues>
            -2.0749975740909576e-01 1.8184569478034973e-01</leafValues></_>
        <_>
          <internalNodes>
            0 -1 270 1.4919506793376058e-04</internalNodes>
          <leafValues>
            1.1366131156682968e-01 -4.1009613871574402e-01</leafValues></_>
        <_>
          <internalNodes>
            0 -1 335 -1.2943963520228863e-03</internalNodes>
          <leafValues>
            3.6060780286788940e-01 -1.1265813559293747e-01</leafValues></_>
        <_>
          <internalNodes>
            0 -1 74 4.7353329136967659e-03</internalNodes>
          <leafValues>
            9.6480280160903931e-02 -4.3868935108184814e-01</leafValues></_>
        <_>
          <internalNodes>
            0 -1 652 1.8194741569459438e-03</internalNodes>
          <leafValues>
            -1.4339490234851837e-01 2.6291337609291077e-01</leafValues></_>
        <_>
          <internalNodes>
            0 -1 305 4.8684086650609970e-03</internalNodes>
          <leafValues>
            9.5366477966308594e-02 -4.7583940625190735e-01</leafValues></_>
        <_>
          <internalNodes>
            0 -1 276 3.5896450281143188e-03</internalNodes>
          <leafValues>
            -1.1713369190692902e-01 3.4825012087821960e-01</leafValues></_>
        <_>
          <internalNodes>
            0 -1 249 -7.0525459013879299e-03</internalNodes>
          <leafValues>
            3.7466451525688171e-01 -1.0371479392051697e-01</leafValues></_>
        <_>
          <internalNodes>
            0 -1 184 7.0043891668319702e-02</internalNodes>
          <leafValues>
            -1.0210933536291122e-01 4.6677091717720032e-01</leafValues></_>
        <_>
          <internalNodes>
            0 -1 111 -3.1501809135079384e-03</internalNodes>
          <leafValues>
            1.8058401346206665e-01 -2.3548287153244019e-01</leafValues></_>
        <_>
          <internalNodes>
            0 -1 166 1.2373125180602074e-02</internalNodes>
          <leafValues>
            -8.6277857422828674e-02 4.1372197866439819e-01</leafValues></_>
        <_>
          <internalNodes>
            0 -1 478 -2.7068238705396652e-03</internalNodes>
          <leafValues>
            -5.5553662776947021e-01 6.5438024699687958e-02</leafValues></_>
        <_>
          <internalNodes>
            0 -1 361 -5.8189671486616135e-02</internalNodes>
          <leafValues>
            -5.9122133255004883e-01 5.9236135333776474e-02</leafValues></_>
        <_>
          <internalNodes>
            0 -1 581 -6.0719053726643324e-04</internalNodes>
          <leafValues>
            2.4596777558326721e-01 -1.4888775348663330e-01</leafValues></_>
        <_>
          <internalNodes>
            0 -1 45 3.4621614031493664e-03</internalNodes>
          <leafValues>
            -5.9074524790048599e-02 5.4213911294937134e-01</leafValues></_>
        <_>
          <internalNodes>
            0 -1 49 -1.5030810027383268e-04</internalNodes>
          <leafValues>
            2.4060823023319244e-01 -1.5554615855216980e-01</leafValues></_>
        <_>
          <internalNodes>
            0 -1 114 -3.7922672927379608e-03</internalNodes>
          <leafValues>
            -7.6497584581375122e-01 5.1418397575616837e-02</leafValues></_>
        <_>
          <internalNodes>
            0 -1 584 -7.6001865090802312e-04</internalNodes>
          <leafValues>
            2.5553593039512634e-01 -1.4447060227394104e-01</leafValues></_>
        <_>
          <internalNodes>
            0 -1 459 1.1935233138501644e-02</internalNodes>
          <leafValues>
            -6.9992408156394958e-02 5.0892299413681030e-01</leafValues></_>
        <_>
          <internalNodes>
            0 -1 733 -2.6474241167306900e-04</internalNodes>
          <leafValues>
            2.3801012337207794e-01 -1.5106801688671112e-01</leafValues></_>
        <_>
          <internalNodes>
            0 -1 557 -6.9001695374026895e-04</internalNodes>
          <leafValues>
            -4.8280781507492065e-01 7.0450268685817719e-02</leafValues></_>
        <_>
          <internalNodes>
            0 -1 124 -2.1549086086452007e-03</internalNodes>
          <leafValues>
            3.0986452102661133e-01 -1.1394464969635010e-01</leafValues></_>
        <_>
          <internalNodes>
            0 -1 201 3.8402103818953037e-03</internalNodes>
          <leafValues>
            7.7534258365631104e-02 -5.2053338289260864e-01</leafValues></_>
        <_>
          <internalNodes>
            0 -1 282 9.9225398153066635e-03</internalNodes>
          <leafValues>
            -8.2358762621879578e-02 4.5970025658607483e-01</leafValues></_>
        <_>
          <internalNodes>
            0 -1 668 -2.6497012004256248e-04</internalNodes>
          <leafValues>
            2.2981902956962585e-01 -1.5748283267021179e-01</leafValues></_>
        <_>
          <internalNodes>
            0 -1 658 3.0546466587111354e-04</internalNodes>
          <leafValues>
            1.0580675303936005e-01 -3.5970133543014526e-01</leafValues></_>
        <_>
          <internalNodes>
            0 -1 602 -4.1758241422940046e-05</internalNodes>
          <leafValues>
            -2.6804819703102112e-01 1.4298766851425171e-01</leafValues></_>
        <_>
          <internalNodes>
            0 -1 541 8.3638186333701015e-04</internalNodes>
          <leafValues>
            -1.9724835455417633e-01 1.8485182523727417e-01</leafValues></_>
        <_>
          <internalNodes>
            0 -1 673 1.9499499467201531e-04</internalNodes>
          <leafValues>
            1.2910163402557373e-01 -2.9129406809806824e-01</leafValues></_>
        <_>
          <internalNodes>
            0 -1 503 -4.0548909455537796e-03</internalNodes>
          <leafValues>
            3.1654426455497742e-01 -1.1396085470914841e-01</leafValues></_>
        <_>
          <internalNodes>
            0 -1 266 -5.4716527462005615e-02</internalNodes>
          <leafValues>
            -9.6770024299621582e-01 4.1122600436210632e-02</leafValues></_>
        <_>
          <internalNodes>
            0 -1 490 3.5368064418435097e-03</internalNodes>
          <leafValues>
            -1.2134703993797302e-01 3.0651128292083740e-01</leafValues></_>
        <_>
          <internalNodes>
            0 -1 591 -2.6663493365049362e-02</internalNodes>
          <leafValues>
            -7.1474981307983398e-01 6.7394383251667023e-02</leafValues></_>
        <_>
          <internalNodes>
            0 -1 357 1.6667536692693830e-04</internalNodes>
          <leafValues>
            -1.8586996197700500e-01 2.1984927356243134e-01</leafValues></_>
        <_>
          <internalNodes>
            0 -1 492 1.7461713869124651e-03</internalNodes>
          <leafValues>
            -1.7150047421455383e-01 2.1759116649627686e-01</leafValues></_>
        <_>
          <internalNodes>
            0 -1 279 1.4937949180603027e-01</internalNodes>
          <leafValues>
            -6.3331924378871918e-02 6.4265787601470947e-01</leafValues></_>
        <_>
          <internalNodes>
            0 -1 75 -2.1625470370054245e-02</internalNodes>
          <leafValues>
            5.1022297143936157e-01 -7.3595255613327026e-02</leafValues></_>
        <_>
          <internalNodes>
            0 -1 218 3.4776134416460991e-03</internalNodes>
          <leafValues>
            -1.9267575442790985e-01 1.8883867561817169e-01</leafValues></_>
        <_>
          <internalNodes>
            0 -1 260 -7.2087883017957211e-04</internalNodes>
          <leafValues>
            2.7492663264274597e-01 -1.4211355149745941e-01</leafValues></_>
        <_>
          <internalNodes>
            0 -1 370 -8.7617076933383942e-03</internalNodes>
          <leafValues>
            3.3846786618232727e-01 -1.1630485206842422e-01</leafValues></_></weakClassifiers></_>
    <!-- stage 14 -->
    <_>
      <maxWeakCount>82</maxWeakCount>
      <stageThreshold>-8.4362530708312988e-01</stageThreshold>
      <weakClassifiers>
        <_>
          <internalNodes>
            0 -1 693 -1.6596051864326000e-03</internalNodes>
          <leafValues>
            -3.8842976093292236e-01 3.0223125219345093e-01</leafValues></_>
        <_>
          <internalNodes>
            0 -1 693 -1.6156168421730399e-03</internalNodes>
          <leafValues>
            1. 8.1818392500281334e-03</leafValues></_>
        <_>
          <internalNodes>
            0 -1 693 -1.5580313047394156e-03</internalNodes>
          <leafValues>
            -1. 1.9419301534071565e-03</leafValues></_>
        <_>
          <internalNodes>
            0 -1 693 -1.4830668224021792e-03</internalNodes>
          <leafValues>
            1. -1.0427504312247038e-03</leafValues></_>
        <_>
          <internalNodes>
            0 -1 693 -1.4660477172583342e-03</internalNodes>
          <leafValues>
            -1. 9.7370945150032640e-04</leafValues></_>
        <_>
          <internalNodes>
            0 -1 693 -1.4549848856404424e-03</internalNodes>
          <leafValues>
            1. -5.2219291683286428e-04</leafValues></_>
        <_>
          <internalNodes>
            0 -1 693 -1.4518871903419495e-03</internalNodes>
          <leafValues>
            -1. 9.7560969879850745e-04</leafValues></_>
        <_>
          <internalNodes>
            0 -1 693 -1.3704674784094095e-03</internalNodes>
          <leafValues>
            1. -1.0460248449817300e-03</leafValues></_>
        <_>
          <internalNodes>
            0 -1 693 -1.3377573341131210e-03</internalNodes>
          <leafValues>
            -1. 1.9569466821849346e-03</leafValues></_>
        <_>
          <internalNodes>
            0 -1 693 -1.2593292631208897e-03</internalNodes>
          <leafValues>
            1. -1.5731489984318614e-03</leafValues></_>
        <_>
          <internalNodes>
            0 -1 693 -1.2269244762137532e-03</internalNodes>
          <leafValues>
            -1. 1.9646352156996727e-03</leafValues></_>
        <_>
          <internalNodes>
            0 -1 693 -1.1989264748990536e-03</internalNodes>
          <leafValues>
            1. -1.5781142283231020e-03</leafValues></_>
        <_>
          <internalNodes>
            0 -1 693 -1.1659696465358138e-03</internalNodes>
          <leafValues>
            -9.9135315418243408e-01 1.4452385948970914e-03</leafValues></_>
        <_>
          <internalNodes>
            0 -1 693 -9.7967719193547964e-04</internalNodes>
          <leafValues>
            9.2313396930694580e-01 -5.4587763734161854e-03</leafValues></_>
        <_>
          <internalNodes>
            0 -1 693 -9.3094201292842627e-04</internalNodes>
          <leafValues>
            -9.9081200361251831e-01 3.9840093813836575e-03</leafValues></_>
        <_>
          <internalNodes>
            0 -1 693 -8.8190741371363401e-04</internalNodes>
          <leafValues>
            9.4187754392623901e-01 -2.6838222984224558e-03</leafValues></_>
        <_>
          <internalNodes>
            0 -1 693 -8.6165103130042553e-04</internalNodes>
          <leafValues>
            -9.9012076854705811e-01 3.0090205837041140e-03</leafValues></_>
        <_>
          <internalNodes>
            0 -1 693 -8.5058243712410331e-04</internalNodes>
          <leafValues>
            9.4790911674499512e-01 -1.0775771224871278e-03</leafValues></_>
        <_>
          <internalNodes>
            0 -1 693 -8.4016495384275913e-04</internalNodes>
          <leafValues>
            -9.8952394723892212e-01 3.0272447038441896e-03</leafValues></_>
        <_>
          <internalNodes>
            0 -1 693 -7.6150131644681096e-04</internalNodes>
          <leafValues>
            9.5531880855560303e-01 -5.4229842498898506e-03</leafValues></_>
        <_>
          <internalNodes>
            0 -1 693 -7.4025557842105627e-04</internalNodes>
          <leafValues>
            -9.8012191057205200e-01 2.5000825989991426e-03</leafValues></_>
        <_>
          <internalNodes>
            0 -1 693 -7.3776044882833958e-04</internalNodes>
          <leafValues>
            9.5847648382186890e-01 -5.4614443797618151e-04</leafValues></_>
        <_>
          <internalNodes>
            0 -1 693 -7.3611794505268335e-04</internalNodes>
          <leafValues>
            -9.7942739725112915e-01 1.0193679481744766e-03</leafValues></_>
        <_>
          <internalNodes>
            0 -1 693 -6.8962574005126953e-04</internalNodes>
          <leafValues>
            9.6140611171722412e-01 -2.7397256344556808e-03</leafValues></_>
        <_>
          <internalNodes>
            0 -1 693 -6.7926396150141954e-04</internalNodes>
          <leafValues>
            -9.7886240482330322e-01 1.0214436333626509e-03</leafValues></_>
        <_>
          <internalNodes>
            0 -1 693 -6.6052679903805256e-04</internalNodes>
          <leafValues>
            9.6338945627212524e-01 -1.6510728746652603e-03</leafValues></_>
        <_>
          <internalNodes>
            0 -1 693 -6.5566995181143284e-04</internalNodes>
          <leafValues>
            -9.7839242219924927e-01 1.0235399240627885e-03</leafValues></_>
        <_>
          <internalNodes>
            0 -1 693 -6.4541981555521488e-04</internalNodes>
          <leafValues>
            9.6487593650817871e-01 -1.1037524091079831e-03</leafValues></_>
        <_>
          <internalNodes>
            0 -1 693 -6.3362193759530783e-04</internalNodes>
          <leafValues>
            -9.7818642854690552e-01 2.0533876959234476e-03</leafValues></_>
        <_>
          <internalNodes>
            0 -1 693 -5.4360961075872183e-04</internalNodes>
          <leafValues>
            8.9621686935424805e-01 -8.1724319607019424e-03</leafValues></_>
        <_>
          <internalNodes>
            0 -1 693 -4.8478279495611787e-04</internalNodes>
          <leafValues>
            -6.8689298629760742e-01 8.2902032881975174e-03</leafValues></_>
        <_>
          <internalNodes>
            0 -1 4 1.3213917613029480e-02</internalNodes>
          <leafValues>
            8.3453916013240814e-02 -4.4931304454803467e-01</leafValues></_>
        <_>
          <internalNodes>
            0 -1 774 4.3115513399243355e-03</internalNodes>
          <leafValues>
            -1.2369543313980103e-01 2.7025184035301208e-01</leafValues></_>
        <_>
          <internalNodes>
            0 -1 547 4.0821498259902000e-03</internalNodes>
          <leafValues>
            -8.7627902626991272e-02 3.8553625345230103e-01</leafValues></_>
        <_>
          <internalNodes>
            0 -1 637 2.0944154821336269e-03</internalNodes>
          <leafValues>
            -8.8103607296943665e-02 4.0686863660812378e-01</leafValues></_>
        <_>
          <internalNodes>
            0 -1 708 1.3727950863540173e-04</internalNodes>
          <leafValues>
            7.5408793985843658e-02 -3.8104417920112610e-01</leafValues></_>
        <_>
          <internalNodes>
            0 -1 621 -2.3107256740331650e-02</internalNodes>
          <leafValues>
            4.3787264823913574e-01 -6.9041721522808075e-02</leafValues></_>
        <_>
          <internalNodes>
            0 -1 163 -3.9669661782681942e-04</internalNodes>
          <leafValues>
            1.9423606991767883e-01 -1.7923875153064728e-01</leafValues></_>
        <_>
          <internalNodes>
            0 -1 563 1.8291579908691347e-04</internalNodes>
          <leafValues>
            1.0874608159065247e-01 -3.4087628126144409e-01</leafValues></_>
        <_>
          <internalNodes>
            0 -1 340 4.0457717841491103e-04</internalNodes>
          <leafValues>
            -1.4465259015560150e-01 2.6328647136688232e-01</leafValues></_>
        <_>
          <internalNodes>
            0 -1 624 3.2616527751088142e-03</internalNodes>
          <leafValues>
            -8.7114043533802032e-02 4.3070670962333679e-01</leafValues></_>
        <_>
          <internalNodes>
            0 -1 626 -2.3482773030991666e-05</internalNodes>
          <leafValues>
            -2.5120607018470764e-01 1.3797943294048309e-01</leafValues></_>
        <_>
          <internalNodes>
            0 -1 669 -2.1227109245955944e-03</internalNodes>
          <leafValues>
            4.2164826393127441e-01 -8.3365932106971741e-02</leafValues></_>
        <_>
          <internalNodes>
            0 -1 393 -2.2312896326184273e-03</internalNodes>
          <leafValues>
            -6.4796066284179688e-01 5.7399425655603409e-02</leafValues></_>
        <_>
          <internalNodes>
            0 -1 196 1.2363016139715910e-03</internalNodes>
          <leafValues>
            -1.3691529631614685e-01 2.7077072858810425e-01</leafValues></_>
        <_>
          <internalNodes>
            0 -1 483 7.5122425332665443e-03</internalNodes>
          <leafValues>
            -8.7183959782123566e-02 3.8879105448722839e-01</leafValues></_>
        <_>
          <internalNodes>
            0 -1 412 1.5897719189524651e-02</internalNodes>
          <leafValues>
            5.5116549134254456e-02 -7.5045728683471680e-01</leafValues></_>
        <_>
          <internalNodes>
            0 -1 440 8.9400503784418106e-03</internalNodes>
          <leafValues>
            -1.2583117187023163e-01 3.0644857883453369e-01</leafValues></_>
        <_>
          <internalNodes>
            0 -1 768 2.4948257487267256e-04</internalNodes>
          <leafValues>
            1.1745408177375793e-01 -3.3020660281181335e-01</leafValues></_>
        <_>
          <internalNodes>
            0 -1 766 3.6503402043308597e-06</internalNodes>
          <leafValues>
            -2.0864710211753845e-01 1.8824605643749237e-01</leafValues></_>
        <_>
          <internalNodes>
            0 -1 586 3.4071281552314758e-03</internalNodes>
          <leafValues>
            -1.4944480359554291e-01 2.4654375016689301e-01</leafValues></_>
        <_>
          <internalNodes>
            0 -1 450 -1.0319040156900883e-03</internalNodes>
          <leafValues>
            4.5345935225486755e-01 -7.4783593416213989e-02</leafValues></_>
        <_>
          <internalNodes>
            0 -1 500 -4.7556895879097283e-05</internalNodes>
          <leafValues>
            -2.4676157534122467e-01 1.4189633727073669e-01</leafValues></_>
        <_>
          <internalNodes>
            0 -1 295 4.9528319388628006e-02</internalNodes>
          <leafValues>
            7.4332036077976227e-02 -5.5619347095489502e-01</leafValues></_>
        <_>
          <internalNodes>
            0 -1 42 1.2288957834243774e-01</internalNodes>
          <leafValues>
            -6.6256903111934662e-02 5.7491046190261841e-01</leafValues></_>
        <_>
          <internalNodes>
            0 -1 37 1.2378861429169774e-03</internalNodes>
          <leafValues>
            -6.3451841473579407e-02 5.5423170328140259e-01</leafValues></_>
        <_>
          <internalNodes>
            0 -1 638 -1.3950411230325699e-03</internalNodes>
          <leafValues>
            2.5431269407272339e-01 -1.3267748057842255e-01</leafValues></_>
        <_>
          <internalNodes>
            0 -1 390 -8.2655213773250580e-02</internalNodes>
          <leafValues>
            6.6171902418136597e-01 -5.9080176055431366e-02</leafValues></_>
        <_>
          <internalNodes>
            0 -1 55 9.5430552028119564e-04</internalNodes>
          <leafValues>
            -6.7138649523258209e-02 4.9662950634956360e-01</leafValues></_>
        <_>
          <internalNodes>
            0 -1 165 9.2379644047468901e-04</internalNodes>
          <leafValues>
            -2.2234947979450226e-01 1.8081773817539215e-01</leafValues></_>
        <_>
          <internalNodes>
            0 -1 322 1.5636805910617113e-03</internalNodes>
          <leafValues>
            -1.4879819750785828e-01 2.6938161253929138e-01</leafValues></_>
        <_>
          <internalNodes>
            0 -1 95 1.0147890076041222e-02</internalNodes>
          <leafValues>
            -4.7015909105539322e-02 7.4243074655532837e-01</leafValues></_>
        <_>
          <internalNodes>
            0 -1 256 4.0002056630328298e-04</internalNodes>
          <leafValues>
            -1.7029012739658356e-01 2.1823973953723907e-01</leafValues></_>
        <_>
          <internalNodes>
            0 -1 431 2.6447037234902382e-02</internalNodes>
          <leafValues>
            -7.1853294968605042e-02 5.9728962182998657e-01</leafValues></_>
        <_>
          <internalNodes>
            0 -1 559 3.4241017419844866e-03</internalNodes>
          <leafValues>
            -1.3515959680080414e-01 2.9382982850074768e-01</leafValues></_>
        <_>
          <internalNodes>
            0 -1 51 -6.4544740598648787e-04</internalNodes>
          <leafValues>
            3.2520353794097900e-01 -1.0673646628856659e-01</leafValues></_>
        <_>
          <internalNodes>
            0 -1 745 2.5905430084094405e-04</internalNodes>
          <leafValues>
            8.7368629872798920e-02 -4.3065905570983887e-01</leafValues></_>
        <_>
          <internalNodes>
            0 -1 729 2.0696590654551983e-03</internalNodes>
          <leafValues>
            -1.0094960033893585e-01 4.1978418827056885e-01</leafValues></_>
        <_>
          <internalNodes>
            0 -1 232 2.2504511289298534e-03</internalNodes>
          <leafValues>
            -6.2621772289276123e-02 6.1421173810958862e-01</leafValues></_>
        <_>
          <internalNodes>
            0 -1 277 -1.5072946436703205e-02</internalNodes>
          <leafValues>
            -5.7618987560272217e-01 7.5184047222137451e-02</leafValues></_>
        <_>
          <internalNodes>
            0 -1 162 2.7281680559099186e-06</internalNodes>
          <leafValues>
            -2.1755911409854889e-01 1.6481772065162659e-01</leafValues></_>
        <_>
          <internalNodes>
            0 -1 247 -3.1721470877528191e-03</internalNodes>
          <leafValues>
            4.3616259098052979e-01 -8.0875627696514130e-02</leafValues></_>
        <_>
          <internalNodes>
            0 -1 690 -9.7448541782796383e-04</internalNodes>
          <leafValues>
            -7.8220438957214355e-01 5.1987506449222565e-02</leafValues></_>
        <_>
          <internalNodes>
            0 -1 20 8.9883245527744293e-04</internalNodes>
          <leafValues>
            -1.2922517955303192e-01 2.8045746684074402e-01</leafValues></_>
        <_>
          <internalNodes>
            0 -1 21 1.4567384496331215e-03</internalNodes>
          <leafValues>
            8.5694156587123871e-02 -4.5024660229682922e-01</leafValues></_>
        <_>
          <internalNodes>
            0 -1 14 -2.5549493730068207e-03</internalNodes>
          <leafValues>
            -3.5561031103134155e-01 1.0355659574270248e-01</leafValues></_>
        <_>
          <internalNodes>
            0 -1 487 -4.3401489965617657e-03</internalNodes>
          <leafValues>
            6.6307395696640015e-01 -5.6039556860923767e-02</leafValues></_>
        <_>
          <internalNodes>
            0 -1 48 -2.5224294513463974e-03</internalNodes>
          <leafValues>
            -4.4792559742927551e-01 9.0162575244903564e-02</leafValues></_>
        <_>
          <internalNodes>
            0 -1 297 8.3403050666674972e-04</internalNodes>
          <leafValues>
            -2.0825082063674927e-01 1.9234281778335571e-01</leafValues></_>
        <_>
          <internalNodes>
            0 -1 259 -5.9473931789398193e-02</internalNodes>
          <leafValues>
            -5.1203453540802002e-01 7.4770696461200714e-02</leafValues></_>
        <_>
          <internalNodes>
            0 -1 614 -2.0234964787960052e-02</internalNodes>
          <leafValues>
            4.5637521147727966e-01 -8.8668495416641235e-02</leafValues></_>
        <_>
          <internalNodes>
            0 -1 498 -1.7247701180167496e-05</internalNodes>
          <leafValues>
            -2.1613612771034241e-01 1.7227794229984283e-01</leafValues></_></weakClassifiers></_>
    <!-- stage 15 -->
    <_>
      <maxWeakCount>57</maxWeakCount>
      <stageThreshold>-8.4857767820358276e-01</stageThreshold>
      <weakClassifiers>
        <_>
          <internalNodes>
            0 -1 4 1.3407677412033081e-02</internalNodes>
          <leafValues>
            3.1773048639297485e-01 -2.5263157486915588e-01</leafValues></_>
        <_>
          <internalNodes>
            0 -1 773 9.1260755434632301e-03</internalNodes>
          <leafValues>
            -9.9552154541015625e-02 3.5687428712844849e-01</leafValues></_>
        <_>
          <internalNodes>
            0 -1 272 5.7709399698069319e-05</internalNodes>
          <leafValues>
            1.5391588211059570e-01 -2.5547981262207031e-01</leafValues></_>
        <_>
          <internalNodes>
            0 -1 640 -1.6894867643713951e-02</internalNodes>
          <leafValues>
            4.2588609457015991e-01 -7.4353106319904327e-02</leafValues></_>
        <_>
          <internalNodes>
            0 -1 585 -4.4010654091835022e-03</internalNodes>
          <leafValues>
            3.3605974912643433e-01 -1.2330570071935654e-01</leafValues></_>
        <_>
          <internalNodes>
            0 -1 643 4.6688914299011230e-03</internalNodes>
          <leafValues>
            -1.0506746172904968e-01 3.1381568312644958e-01</leafValues></_>
        <_>
          <internalNodes>
            0 -1 443 -1.7121698707342148e-02</internalNodes>
          <leafValues>
            -6.8682205677032471e-01 5.3813539445400238e-02</leafValues></_>
        <_>
          <internalNodes>
            0 -1 372 5.8782445266842842e-03</internalNodes>
          <leafValues>
            9.0834841132164001e-02 -3.4004527330398560e-01</leafValues></_>
        <_>
          <internalNodes>
            0 -1 582 7.6436614617705345e-03</internalNodes>
          <leafValues>
            -8.7829358875751495e-02 3.4999555349349976e-01</leafValues></_>
        <_>
          <internalNodes>
            0 -1 687 9.6459919586777687e-04</internalNodes>
          <leafValues>
            -1.4832447469234467e-01 2.5758981704711914e-01</leafValues></_>
        <_>
          <internalNodes>
            0 -1 720 -1.4541042037308216e-03</internalNodes>
          <leafValues>
            -5.2592384815216064e-01 8.7170809507369995e-02</leafValues></_>
        <_>
          <internalNodes>
            0 -1 128 -4.2985724285244942e-03</internalNodes>
          <leafValues>
            3.2492122054100037e-01 -1.1776256561279297e-01</leafValues></_>
        <_>
          <internalNodes>
            0 -1 542 3.6660046316683292e-03</internalNodes>
          <leafValues>
            -7.7337063848972321e-02 3.7419500946998596e-01</leafValues></_>
        <_>
          <internalNodes>
            0 -1 349 2.2396515123546124e-03</internalNodes>
          <leafValues>
            7.0330753922462463e-02 -4.4581672549247742e-01</leafValues></_>
        <_>
          <internalNodes>
            0 -1 460 -7.8981935977935791e-02</internalNodes>
          <leafValues>
            -9.7843980789184570e-01 4.0494628250598907e-02</leafValues></_>
        <_>
          <internalNodes>
            0 -1 154 -1.5143398195505142e-04</internalNodes>
          <leafValues>
            -3.7734746932983398e-01 8.0902256071567535e-02</leafValues></_>
        <_>
          <internalNodes>
            0 -1 298 3.3483426086604595e-03</internalNodes>
          <leafValues>
            -8.6438536643981934e-02 3.5542035102844238e-01</leafValues></_>
        <_>
          <internalNodes>
            0 -1 746 -8.9472683612257242e-05</internalNodes>
          <leafValues>
            -2.6528492569923401e-01 1.1818335205316544e-01</leafValues></_>
        <_>
          <internalNodes>
            0 -1 147 2.0005181431770325e-03</internalNodes>
          <leafValues>
            -9.6539996564388275e-02 3.5498175024986267e-01</leafValues></_>
        <_>
          <internalNodes>
            0 -1 427 3.5546999424695969e-03</internalNodes>
          <leafValues>
            5.2980855107307434e-02 -5.8340239524841309e-01</leafValues></_>
        <_>
          <internalNodes>
            0 -1 667 4.7005480155348778e-03</internalNodes>
          <leafValues>
            -7.0017874240875244e-02 5.4385995864868164e-01</leafValues></_>
        <_>
          <internalNodes>
            0 -1 34 -1.0237018577754498e-03</internalNodes>
          <leafValues>
            2.9663690924644470e-01 -1.1286779493093491e-01</leafValues></_>
        <_>
          <internalNodes>
            0 -1 590 -2.0785314962267876e-02</internalNodes>
          <leafValues>
            3.6485782265663147e-01 -9.4451978802680969e-02</leafValues></_>
        <_>
          <internalNodes>
            0 -1 123 -1.4938982203602791e-03</internalNodes>
          <leafValues>
            3.2820275425910950e-01 -1.1857508867979050e-01</leafValues></_>
        <_>
          <internalNodes>
            0 -1 331 6.3846269622445107e-03</internalNodes>
          <leafValues>
            -6.9754078984260559e-02 5.1538842916488647e-01</leafValues></_>
        <_>
          <internalNodes>
            0 -1 144 1.2738709338009357e-03</internalNodes>
          <leafValues>
            6.8290710449218750e-02 -6.2825322151184082e-01</leafValues></_>
        <_>
          <internalNodes>
            0 -1 137 2.0860199583694339e-04</internalNodes>
          <leafValues>
            -1.8847733736038208e-01 2.1313910186290741e-01</leafValues></_>
        <_>
          <internalNodes>
            0 -1 493 3.5683833993971348e-04</internalNodes>
          <leafValues>
            1.2442132085561752e-01 -3.0715197324752808e-01</leafValues></_>
        <_>
          <internalNodes>
            0 -1 202 -5.1859911764040589e-04</internalNodes>
          <leafValues>
            6.9235527515411377e-01 -5.3201526403427124e-02</leafValues></_>
        <_>
          <internalNodes>
            0 -1 506 6.3278603192884475e-05</internalNodes>
          <leafValues>
            -1.5275697410106659e-01 2.2402960062026978e-01</leafValues></_>
        <_>
          <internalNodes>
            0 -1 501 1.1011733440682292e-03</internalNodes>
          <leafValues>
            5.6630551815032959e-02 -6.3737767934799194e-01</leafValues></_>
        <_>
          <internalNodes>
            0 -1 523 -1.5794978244230151e-03</internalNodes>
          <leafValues>
            3.3968853950500488e-01 -1.0965675115585327e-01</leafValues></_>
        <_>
          <internalNodes>
            0 -1 269 -8.6685249698348343e-05</internalNodes>
          <leafValues>
            -3.2081890106201172e-01 1.2042064219713211e-01</leafValues></_>
        <_>
          <internalNodes>
            0 -1 87 1.6990385949611664e-02</internalNodes>
          <leafValues>
            5.2911087870597839e-02 -6.4907842874526978e-01</leafValues></_>
        <_>
          <internalNodes>
            0 -1 11 -3.0382898330572061e-05</internalNodes>
          <leafValues>
            -2.2221446037292480e-01 1.6894416511058807e-01</leafValues></_>
        <_>
          <internalNodes>
            0 -1 670 3.5025186836719513e-02</internalNodes>
          <leafValues>
            -7.0308670401573181e-02 5.1387655735015869e-01</leafValues></_>
        <_>
          <internalNodes>
            0 -1 468 1.1374663561582565e-02</internalNodes>
          <leafValues>
            7.1969822049140930e-02 -6.3200861215591431e-01</leafValues></_>
        <_>
          <internalNodes>
            0 -1 509 -3.9227204397320747e-03</internalNodes>
          <leafValues>
            3.2937595248222351e-01 -1.0765302926301956e-01</leafValues></_>
        <_>
          <internalNodes>
            0 -1 561 9.3828147510066628e-04</internalNodes>
          <leafValues>
            -1.4964874088764191e-01 2.4616961181163788e-01</leafValues></_>
        <_>
          <internalNodes>
            0 -1 698 -3.3937167609110475e-04</internalNodes>
          <leafValues>
            2.3004458844661713e-01 -1.6112235188484192e-01</leafValues></_>
        <_>
          <internalNodes>
            0 -1 738 -5.0019985064864159e-03</internalNodes>
          <leafValues>
            -7.1245223283767700e-01 4.6598065644502640e-02</leafValues></_>
        <_>
          <internalNodes>
            0 -1 31 -9.5480409072479233e-06</internalNodes>
          <leafValues>
            1.9996638596057892e-01 -1.8059048056602478e-01</leafValues></_>
        <_>
          <internalNodes>
            0 -1 359 3.8133695488795638e-04</internalNodes>
          <leafValues>
            5.9595946222543716e-02 -6.5418851375579834e-01</leafValues></_>
        <_>
          <internalNodes>
            0 -1 530 7.9429929610341787e-04</internalNodes>
          <leafValues>
            -8.3783462643623352e-02 4.9321690201759338e-01</leafValues></_>
        <_>
          <internalNodes>
            0 -1 231 1.7510070392745547e-05</internalNodes>
          <leafValues>
            1.7835018038749695e-01 -2.0852090418338776e-01</leafValues></_>
        <_>
          <internalNodes>
            0 -1 15 -1.1029040440917015e-02</internalNodes>
          <leafValues>
            -5.3552615642547607e-01 6.0653697699308395e-02</leafValues></_>
        <_>
          <internalNodes>
            0 -1 522 1.8596072914078832e-04</internalNodes>
          <leafValues>
            -1.7458537220954895e-01 2.1083471179008484e-01</leafValues></_>
        <_>
          <internalNodes>
            0 -1 108 -8.6345782619901001e-05</internalNodes>
          <leafValues>
            -2.9646772146224976e-01 1.2082460522651672e-01</leafValues></_>
        <_>
          <internalNodes>
            0 -1 588 5.6529035791754723e-03</internalNodes>
          <leafValues>
            8.1365779042243958e-02 -4.7549858689308167e-01</leafValues></_>
        <_>
          <internalNodes>
            0 -1 303 4.9807811155915260e-03</internalNodes>
          <leafValues>
            -7.7329486608505249e-02 4.9991056323051453e-01</leafValues></_>
        <_>
          <internalNodes>
            0 -1 364 1.7877203645184636e-03</internalNodes>
          <leafValues>
            8.5943341255187988e-02 -4.5226952433586121e-01</leafValues></_>
        <_>
          <internalNodes>
            0 -1 307 -2.6022561360150576e-04</internalNodes>
          <leafValues>
            2.3951721191406250e-01 -1.6281643509864807e-01</leafValues></_>
        <_>
          <internalNodes>
            0 -1 311 -5.1667606458067894e-03</internalNodes>
          <leafValues>
            -5.9088683128356934e-01 6.1571881175041199e-02</leafValues></_>
        <_>
          <internalNodes>
            0 -1 657 7.1645341813564301e-03</internalNodes>
          <leafValues>
            -1.2230786681175232e-01 3.1114432215690613e-01</leafValues></_>
        <_>
          <internalNodes>
            0 -1 661 -3.7936767330393195e-04</internalNodes>
          <leafValues>
            6.8797832727432251e-01 -4.8519715666770935e-02</leafValues></_>
        <_>
          <internalNodes>
            0 -1 351 3.3152647316455841e-02</internalNodes>
          <leafValues>
            5.4340217262506485e-02 -7.2008246183395386e-01</leafValues></_>
        <_>
          <internalNodes>
            0 -1 464 -1.7522566486150026e-03</internalNodes>
          <leafValues>
            4.9086421728134155e-01 -7.8497596085071564e-02</leafValues></_></weakClassifiers></_>
    <!-- stage 16 -->
    <_>
      <maxWeakCount>51</maxWeakCount>
      <stageThreshold>-8.5364764928817749e-01</stageThreshold>
      <weakClassifiers>
        <_>
          <internalNodes>
            0 -1 678 3.8970529567450285e-03</internalNodes>
          <leafValues>
            2.9240924119949341e-01 -5.0588238239288330e-01</leafValues></_>
        <_>
          <internalNodes>
            0 -1 0 3.1306759919971228e-03</internalNodes>
          <leafValues>
            -7.8122928738594055e-02 4.0550023317337036e-01</leafValues></_>
        <_>
          <internalNodes>
            0 -1 9 -4.7285393811762333e-03</internalNodes>
          <leafValues>
            5.9190291166305542e-01 -8.0183729529380798e-02</leafValues></_>
        <_>
          <internalNodes>
            0 -1 10 -3.9282939396798611e-03</internalNodes>
          <leafValues>
            -7.6935511827468872e-01 1.7482871189713478e-02</leafValues></_>
        <_>
          <internalNodes>
            0 -1 90 -3.5012657754123211e-03</internalNodes>
          <leafValues>
            7.1128052473068237e-01 1.2627792544662952e-02</leafValues></_>
        <_>
          <internalNodes>
            0 -1 66 -5.4591842927038670e-03</internalNodes>
          <leafValues>
            -5.4441362619400024e-01 1.3670562766492367e-02</leafValues></_>
        <_>
          <internalNodes>
            0 -1 341 7.0033245719969273e-04</internalNodes>
          <leafValues>
            -8.2712285220623016e-02 2.9038563370704651e-01</leafValues></_>
        <_>
          <internalNodes>
            0 -1 646 -2.4602808989584446e-03</internalNodes>
          <leafValues>
            -4.3957278132438660e-01 7.7752061188220978e-02</leafValues></_>
        <_>
          <internalNodes>
            0 -1 473 1.0972046293318272e-03</internalNodes>
          <leafValues>
            -1.0297215729951859e-01 3.5115441679954529e-01</leafValues></_>
        <_>
          <internalNodes>
            0 -1 226 -1.4071858022361994e-03</internalNodes>
          <leafValues>
            2.9043447971343994e-01 -1.1580421030521393e-01</leafValues></_>
        <_>
          <internalNodes>
            0 -1 689 2.2665306925773621e-02</internalNodes>
          <leafValues>
            -7.9071007668972015e-02 4.0435445308685303e-01</leafValues></_>
        <_>
          <internalNodes>
            0 -1 309 -2.7695573866367340e-02</internalNodes>
          <leafValues>
            4.5726862549781799e-01 -7.6540820300579071e-02</leafValues></_>
        <_>
          <internalNodes>
            0 -1 435 7.1837380528450012e-02</internalNodes>
          <leafValues>
            4.6498484909534454e-02 -8.1594896316528320e-01</leafValues></_>
        <_>
          <internalNodes>
            0 -1 255 5.5111572146415710e-03</internalNodes>
          <leafValues>
            4.6229928731918335e-02 -6.0070663690567017e-01</leafValues></_>
        <_>
          <internalNodes>
            0 -1 64 1.8965515773743391e-03</internalNodes>
          <leafValues>
            5.8445621281862259e-02 -5.3762203454971313e-01</leafValues></_>
        <_>
          <internalNodes>
            0 -1 369 -1.9906417001038790e-03</internalNodes>
          <leafValues>
            4.3996208906173706e-01 -7.9498782753944397e-02</leafValues></_>
        <_>
          <internalNodes>
            0 -1 149 -4.2231788393110037e-04</internalNodes>
          <leafValues>
            2.2319103777408600e-01 -1.4947143197059631e-01</leafValues></_>
        <_>
          <internalNodes>
            0 -1 566 -1.1497630737721920e-02</internalNodes>
          <leafValues>
            3.2717779278755188e-01 -9.4989940524101257e-02</leafValues></_>
        <_>
          <internalNodes>
            0 -1 653 4.1169621981680393e-03</internalNodes>
          <leafValues>
            -8.1712618470191956e-02 4.3671625852584839e-01</leafValues></_>
        <_>
          <internalNodes>
            0 -1 329 -5.9907115064561367e-03</internalNodes>
          <leafValues>
            -4.2397379875183105e-01 9.2584170401096344e-02</leafValues></_>
        <_>
          <internalNodes>
            0 -1 732 -1.2760196113958955e-04</internalNodes>
          <leafValues>
            2.1088361740112305e-01 -1.7746643722057343e-01</leafValues></_>
        <_>
          <internalNodes>
            0 -1 724 -6.3508516177535057e-05</internalNodes>
          <leafValues>
            -2.8736901283264160e-01 1.2801896035671234e-01</leafValues></_>
        <_>
          <internalNodes>
            0 -1 237 4.7017342876642942e-04</internalNodes>
          <leafValues>
            -1.7105406522750854e-01 2.2227008640766144e-01</leafValues></_>
        <_>
          <internalNodes>
            0 -1 589 -5.0576357170939445e-03</internalNodes>
          <leafValues>
            7.3227655887603760e-01 -4.1523765772581100e-02</leafValues></_>
        <_>
          <internalNodes>
            0 -1 160 2.2509177215397358e-03</internalNodes>
          <leafValues>
            7.7498108148574829e-02 -4.7515064477920532e-01</leafValues></_>
        <_>
          <internalNodes>
            0 -1 568 1.3121162774041295e-03</internalNodes>
          <leafValues>
            -1.5294305980205536e-01 2.3137851059436798e-01</leafValues></_>
        <_>
          <internalNodes>
            0 -1 502 7.2159687988460064e-04</internalNodes>
          <leafValues>
            -1.1345115303993225e-01 3.1382727622985840e-01</leafValues></_>
        <_>
          <internalNodes>
            0 -1 596 -5.3250994824338704e-05</internalNodes>
          <leafValues>
            -2.7030110359191895e-01 1.4665219187736511e-01</leafValues></_>
        <_>
          <internalNodes>
            0 -1 615 5.3469273552764207e-05</internalNodes>
          <leafValues>
            -1.7289879918098450e-01 2.1279637515544891e-01</leafValues></_>
        <_>
          <internalNodes>
            0 -1 133 8.4160116966813803e-04</internalNodes>
          <leafValues>
            -1.3034732639789581e-01 3.0336961150169373e-01</leafValues></_>
        <_>
          <internalNodes>
            0 -1 466 5.0515113398432732e-03</internalNodes>
          <leafValues>
            -1.0201578587293625e-01 3.1886717677116394e-01</leafValues></_>
        <_>
          <internalNodes>
            0 -1 496 3.5821653000311926e-05</internalNodes>
          <leafValues>
            1.4312899112701416e-01 -2.7683129906654358e-01</leafValues></_>
        <_>
          <internalNodes>
            0 -1 94 -5.1220111548900604e-02</internalNodes>
          <leafValues>
            4.6302074193954468e-01 -6.6935606300830841e-02</leafValues></_>
        <_>
          <internalNodes>
            0 -1 153 9.9799912422895432e-03</internalNodes>
          <leafValues>
            -7.7352553606033325e-02 4.3460145592689514e-01</leafValues></_>
        <_>
          <internalNodes>
            0 -1 22 4.5785307884216309e-03</internalNodes>
          <leafValues>
            -8.3901450037956238e-02 4.2933967709541321e-01</leafValues></_>
        <_>
          <internalNodes>
            0 -1 683 -5.8483252360019833e-05</internalNodes>
          <leafValues>
            -2.7935302257537842e-01 1.3275173306465149e-01</leafValues></_>
        <_>
          <internalNodes>
            0 -1 771 -1.6220191901084036e-04</internalNodes>
          <leafValues>
            2.9180771112442017e-01 -1.2800133228302002e-01</leafValues></_>
        <_>
          <internalNodes>
            0 -1 227 2.7527607016963884e-05</internalNodes>
          <leafValues>
            1.5774475038051605e-01 -2.3638275265693665e-01</leafValues></_>
        <_>
          <internalNodes>
            0 -1 749 -4.5166001655161381e-04</internalNodes>
          <leafValues>
            2.6773941516876221e-01 -1.2975542247295380e-01</leafValues></_>
        <_>
          <internalNodes>
            0 -1 169 2.4793888442218304e-03</internalNodes>
          <leafValues>
            7.2208113968372345e-02 -5.2146947383880615e-01</leafValues></_>
        <_>
          <internalNodes>
            0 -1 536 -1.1564842425286770e-03</internalNodes>
          <leafValues>
            -4.3175485730171204e-01 7.7461488544940948e-02</leafValues></_>
        <_>
          <internalNodes>
            0 -1 639 5.4502789862453938e-04</internalNodes>
          <leafValues>
            -1.4288093149662018e-01 2.3863716423511505e-01</leafValues></_>
        <_>
          <internalNodes>
            0 -1 691 1.5305904671549797e-03</internalNodes>
          <leafValues>
            5.1536109298467636e-02 -6.1379647254943848e-01</leafValues></_>
        <_>
          <internalNodes>
            0 -1 391 1.1104621225968003e-03</internalNodes>
          <leafValues>
            -1.4260071516036987e-01 2.5193840265274048e-01</leafValues></_>
        <_>
          <internalNodes>
            0 -1 72 -2.2797063138568774e-05</internalNodes>
          <leafValues>
            -1.9142647087574005e-01 1.7624481022357941e-01</leafValues></_>
        <_>
          <internalNodes>
            0 -1 208 1.2868249905295670e-04</internalNodes>
          <leafValues>
            1.0068247467279434e-01 -3.5409760475158691e-01</leafValues></_>
        <_>
          <internalNodes>
            0 -1 253 -7.0816336665302515e-04</internalNodes>
          <leafValues>
            3.5826256871223450e-01 -1.0750705003738403e-01</leafValues></_>
        <_>
          <internalNodes>
            0 -1 93 6.7446152679622173e-03</internalNodes>
          <leafValues>
            6.4696647226810455e-02 -5.2861577272415161e-01</leafValues></_>
        <_>
          <internalNodes>
            0 -1 71 9.3344447668641806e-04</internalNodes>
          <leafValues>
            -1.1567064374685287e-01 3.3706942200660706e-01</leafValues></_>
        <_>
          <internalNodes>
            0 -1 252 4.0334463119506836e-03</internalNodes>
          <leafValues>
            8.0343589186668396e-02 -4.7982743382453918e-01</leafValues></_>
        <_>
          <internalNodes>
            0 -1 52 -6.8236305378377438e-04</internalNodes>
          <leafValues>
            3.3101063966751099e-01 -1.1955884844064713e-01</leafValues></_></weakClassifiers></_>
    <!-- stage 17 -->
    <_>
      <maxWeakCount>50</maxWeakCount>
      <stageThreshold>-8.1079584360122681e-01</stageThreshold>
      <weakClassifiers>
        <_>
          <internalNodes>
            0 -1 258 5.9414911270141602e-01</internalNodes>
          <leafValues>
            2.8562217950820923e-01 -8.7755101919174194e-01</leafValues></_>
        <_>
          <internalNodes>
            0 -1 694 1.2588536739349365e-01</internalNodes>
          <leafValues>
            -8.2423247396945953e-02 3.6493772268295288e-01</leafValues></_>
        <_>
          <internalNodes>
            0 -1 346 7.6881254790350795e-04</internalNodes>
          <leafValues>
            6.5534673631191254e-02 -4.4658198952674866e-01</leafValues></_>
        <_>
          <internalNodes>
            0 -1 300 4.0907971560955048e-03</internalNodes>
          <leafValues>
            -1.2592943012714386e-01 2.5183990597724915e-01</leafValues></_>
        <_>
          <internalNodes>
            0 -1 728 -2.3251642414834350e-04</internalNodes>
          <leafValues>
            1.6773870587348938e-01 -2.0213450491428375e-01</leafValues></_>
        <_>
          <internalNodes>
            0 -1 291 3.5058503272011876e-05</internalNodes>
          <leafValues>
            1.3961157202720642e-01 -2.3172235488891602e-01</leafValues></_>
        <_>
          <internalNodes>
            0 -1 325 -3.0391294509172440e-02</internalNodes>
          <leafValues>
            -3.9640444517135620e-01 1.0355702787637711e-01</leafValues></_>
        <_>
          <internalNodes>
            0 -1 344 5.4175745695829391e-02</internalNodes>
          <leafValues>
            6.2096294015645981e-02 -5.3613209724426270e-01</leafValues></_>
        <_>
          <internalNodes>
            0 -1 121 -1.5223354101181030e-02</internalNodes>
          <leafValues>
            3.8142991065979004e-01 -8.4546305239200592e-02</leafValues></_>
        <_>
          <internalNodes>
            0 -1 148 -4.5685243094339967e-04</internalNodes>
          <leafValues>
            1.9460496306419373e-01 -1.8393133580684662e-01</leafValues></_>
        <_>
          <internalNodes>
            0 -1 215 -8.6089581600390375e-05</internalNodes>
          <leafValues>
            -2.7880516648292542e-01 1.2133209407329559e-01</leafValues></_>
        <_>
          <internalNodes>
            0 -1 275 -5.4053030908107758e-04</internalNodes>
          <leafValues>
            2.4763007462024689e-01 -1.3067296147346497e-01</leafValues></_>
        <_>
          <internalNodes>
            0 -1 47 6.6208338830620050e-04</internalNodes>
          <leafValues>
            -1.6508780419826508e-01 1.9516250491142273e-01</leafValues></_>
        <_>
          <internalNodes>
            0 -1 692 4.1309586958959699e-04</internalNodes>
          <leafValues>
            -1.1631358414888382e-01 2.7614414691925049e-01</leafValues></_>
        <_>
          <internalNodes>
            0 -1 718 6.2465760856866837e-03</internalNodes>
          <leafValues>
            -1.1919125914573669e-01 3.0721667408943176e-01</leafValues></_>
        <_>
          <internalNodes>
            0 -1 24 -1.8463255837559700e-02</internalNodes>
          <leafValues>
            2.3555850982666016e-01 -1.4185398817062378e-01</leafValues></_>
        <_>
          <internalNodes>
            0 -1 403 -3.3753756433725357e-03</internalNodes>
          <leafValues>
            -4.7028970718383789e-01 8.3324261009693146e-02</leafValues></_>
        <_>
          <internalNodes>
            0 -1 411 -7.7538369223475456e-03</internalNodes>
          <leafValues>
            4.8454955220222473e-01 -8.3416171371936798e-02</leafValues></_>
        <_>
          <internalNodes>
            0 -1 178 1.2465352192521095e-03</internalNodes>
          <leafValues>
            -1.0089187324047089e-01 3.1798017024993896e-01</leafValues></_>
        <_>
          <internalNodes>
            0 -1 685 3.2428139820694923e-04</internalNodes>
          <leafValues>
            -1.4752970635890961e-01 2.1454957127571106e-01</leafValues></_>
        <_>
          <internalNodes>
            0 -1 555 8.3759034168906510e-05</internalNodes>
          <leafValues>
            -1.7254453897476196e-01 1.8996490538120270e-01</leafValues></_>
        <_>
          <internalNodes>
            0 -1 610 2.9931223252788186e-04</internalNodes>
          <leafValues>
            -1.8714442849159241e-01 1.8211373686790466e-01</leafValues></_>
        <_>
          <internalNodes>
            0 -1 424 1.4197864220477641e-04</internalNodes>
          <leafValues>
            -1.4657747745513916e-01 2.5698044896125793e-01</leafValues></_>
        <_>
          <internalNodes>
            0 -1 609 -4.5048250467516482e-04</internalNodes>
          <leafValues>
            2.5137981772422791e-01 -1.3119272887706757e-01</leafValues></_>
        <_>
          <internalNodes>
            0 -1 241 -2.8053417801856995e-02</internalNodes>
          <leafValues>
            -6.4424270391464233e-01 5.6883931159973145e-02</leafValues></_>
        <_>
          <internalNodes>
            0 -1 672 6.9185653701424599e-03</internalNodes>
          <leafValues>
            5.7836633175611496e-02 -6.4572131633758545e-01</leafValues></_>
        <_>
          <internalNodes>
            0 -1 138 1.5311615541577339e-02</internalNodes>
          <leafValues>
            -1.2739750742912292e-01 3.0098703503608704e-01</leafValues></_>
        <_>
          <internalNodes>
            0 -1 214 3.1319190748035908e-04</internalNodes>
          <leafValues>
            -1.8358041346073151e-01 2.4672043323516846e-01</leafValues></_>
        <_>
          <internalNodes>
            0 -1 188 1.3276048935949802e-02</internalNodes>
          <leafValues>
            1.0094985365867615e-01 -3.5089206695556641e-01</leafValues></_>
        <_>
          <internalNodes>
            0 -1 651 2.2600656375288963e-03</internalNodes>
          <leafValues>
            -9.5782704651355743e-02 3.4440213441848755e-01</leafValues></_>
        <_>
          <internalNodes>
            0 -1 434 1.7108531901612878e-03</internalNodes>
          <leafValues>
            6.8811379373073578e-02 -5.0927680730819702e-01</leafValues></_>
        <_>
          <internalNodes>
            0 -1 336 3.9141389424912632e-04</internalNodes>
          <leafValues>
            -5.8454085141420364e-02 6.5900540351867676e-01</leafValues></_>
        <_>
          <internalNodes>
            0 -1 382 8.9008118957281113e-03</internalNodes>
          <leafValues>
            -4.3960854411125183e-02 6.1661183834075928e-01</leafValues></_>
        <_>
          <internalNodes>
            0 -1 510 5.0656450912356377e-04</internalNodes>
          <leafValues>
            -1.4542320370674133e-01 2.2232834994792938e-01</leafValues></_>
        <_>
          <internalNodes>
            0 -1 250 -7.8567415475845337e-03</internalNodes>
          <leafValues>
            4.0219160914421082e-01 -7.6911851763725281e-02</leafValues></_>
        <_>
          <internalNodes>
            0 -1 441 1.3401845935732126e-03</internalNodes>
          <leafValues>
            -7.2821393609046936e-02 4.1763725876808167e-01</leafValues></_>
        <_>
          <internalNodes>
            0 -1 224 4.1080999653786421e-04</internalNodes>
          <leafValues>
            9.4366595149040222e-02 -3.7629875540733337e-01</leafValues></_>
        <_>
          <internalNodes>
            0 -1 679 1.0608784854412079e-02</internalNodes>
          <leafValues>
            5.1973521709442139e-02 -6.1399120092391968e-01</leafValues></_>
        <_>
          <internalNodes>
            0 -1 78 6.3661352032795548e-04</internalNodes>
          <leafValues>
            -7.8844100236892700e-02 4.5687615871429443e-01</leafValues></_>
        <_>
          <internalNodes>
            0 -1 235 -4.2016375809907913e-03</internalNodes>
          <leafValues>
            -6.9044268131256104e-01 5.5966008454561234e-02</leafValues></_>
        <_>
          <internalNodes>
            0 -1 423 6.2584562692791224e-04</internalNodes>
          <leafValues>
            -1.6373355686664581e-01 2.2558942437171936e-01</leafValues></_>
        <_>
          <internalNodes>
            0 -1 168 -5.4709231480956078e-03</internalNodes>
          <leafValues>
            -8.5083895921707153e-01 4.9772072583436966e-02</leafValues></_>
        <_>
          <internalNodes>
            0 -1 127 -2.1862835274077952e-04</internalNodes>
          <leafValues>
            2.1348644793033600e-01 -1.6647167503833771e-01</leafValues></_>
        <_>
          <internalNodes>
            0 -1 432 -3.4853285178542137e-03</internalNodes>
          <leafValues>
            4.8394921422004700e-01 -7.6035730540752411e-02</leafValues></_>
        <_>
          <internalNodes>
            0 -1 326 -7.1562954690307379e-04</internalNodes>
          <leafValues>
            -8.1681156158447266e-01 4.8422031104564667e-02</leafValues></_>
        <_>
          <internalNodes>
            0 -1 759 2.9694952900172211e-05</internalNodes>
          <leafValues>
            1.1492937803268433e-01 -3.0102184414863586e-01</leafValues></_>
        <_>
          <internalNodes>
            0 -1 545 -3.6437642847886309e-05</internalNodes>
          <leafValues>
            -2.8570142388343811e-01 1.2726716697216034e-01</leafValues></_>
        <_>
          <internalNodes>
            0 -1 647 9.6344633493572474e-04</internalNodes>
          <leafValues>
            -1.4455448091030121e-01 2.6511499285697937e-01</leafValues></_>
        <_>
          <internalNodes>
            0 -1 717 -2.1030991047155112e-04</internalNodes>
          <leafValues>
            2.1890127658843994e-01 -1.7577062547206879e-01</leafValues></_>
        <_>
          <internalNodes>
            0 -1 41 -6.5284071024507284e-04</internalNodes>
          <leafValues>
            2.7464067935943604e-01 -1.2995623052120209e-01</leafValues></_></weakClassifiers></_>
    <!-- stage 18 -->
    <_>
      <maxWeakCount>53</maxWeakCount>
      <stageThreshold>-6.7598426342010498e-01</stageThreshold>
      <weakClassifiers>
        <_>
          <internalNodes>
            0 -1 516 1.0867911623790860e-03</internalNodes>
          <leafValues>
            1.4031971991062164e-01 5.1054853200912476e-01</leafValues></_>
        <_>
          <internalNodes>
            0 -1 181 1.6035696491599083e-02</internalNodes>
          <leafValues>
            -4.2570289224386215e-02 5.4572939872741699e-01</leafValues></_>
        <_>
          <internalNodes>
            0 -1 181 1.5612507238984108e-02</internalNodes>
          <leafValues>
            6.5087582916021347e-03 -9.7370988130569458e-01</leafValues></_>
        <_>
          <internalNodes>
            0 -1 181 1.5188030898571014e-02</internalNodes>
          <leafValues>
            -2.3440676741302013e-03 7.7562391757965088e-01</leafValues></_>
        <_>
          <internalNodes>
            0 -1 301 1.1710377410054207e-02</internalNodes>
          <leafValues>
            -7.3224641382694244e-02 3.9367419481277466e-01</leafValues></_>
        <_>
          <internalNodes>
            0 -1 146 -5.5650074500590563e-04</internalNodes>
          <leafValues>
            1.9625297188758850e-01 -1.6289745271205902e-01</leafValues></_>
        <_>
          <internalNodes>
            0 -1 549 7.5254896655678749e-03</internalNodes>
          <leafValues>
            -1.3782793283462524e-01 2.4599188566207886e-01</leafValues></_>
        <_>
          <internalNodes>
            0 -1 723 1.1649504303932190e-03</internalNodes>
          <leafValues>
            -1.3835667073726654e-01 2.6165279746055603e-01</leafValues></_>
        <_>
          <internalNodes>
            0 -1 695 -7.6886616647243500e-02</internalNodes>
          <leafValues>
            4.6961256861686707e-01 -8.0034479498863220e-02</leafValues></_>
        <_>
          <internalNodes>
            0 -1 755 6.4544766210019588e-03</internalNodes>
          <leafValues>
            -7.8500993549823761e-02 4.0896290540695190e-01</leafValues></_>
        <_>
          <internalNodes>
            0 -1 659 -7.7754957601428032e-05</internalNodes>
          <leafValues>
            -2.8623133897781372e-01 1.2014351785182953e-01</leafValues></_>
        <_>
          <internalNodes>
            0 -1 185 -1.7688118387013674e-03</internalNodes>
          <leafValues>
            2.0476546883583069e-01 -1.6930538415908813e-01</leafValues></_>
        <_>
          <internalNodes>
            0 -1 716 6.1227928381413221e-04</internalNodes>
          <leafValues>
            -4.9363993108272552e-02 6.7517513036727905e-01</leafValues></_>
        <_>
          <internalNodes>
            0 -1 613 1.4363434165716171e-02</internalNodes>
          <leafValues>
            4.9631837755441666e-02 -8.5018569231033325e-01</leafValues></_>
        <_>
          <internalNodes>
            0 -1 471 -3.8122474215924740e-03</internalNodes>
          <leafValues>
            4.6675801277160645e-01 -7.5570046901702881e-02</leafValues></_>
        <_>
          <internalNodes>
            0 -1 97 1.1403061449527740e-02</internalNodes>
          <leafValues>
            -9.0541325509548187e-02 3.4445849061012268e-01</leafValues></_>
        <_>
          <internalNodes>
            0 -1 400 -2.5206473655998707e-03</internalNodes>
          <leafValues>
            -6.1568009853363037e-01 5.2760526537895203e-02</leafValues></_>
        <_>
          <internalNodes>
            0 -1 517 1.4815609902143478e-03</internalNodes>
          <leafValues>
            -1.5908923745155334e-01 2.1555604040622711e-01</leafValues></_>
        <_>
          <internalNodes>
            0 -1 456 -9.8315738141536713e-03</internalNodes>
          <leafValues>
            -6.0467946529388428e-01 5.6760091334581375e-02</leafValues></_>
        <_>
          <internalNodes>
            0 -1 682 8.1603729631751776e-04</internalNodes>
          <leafValues>
            -1.3056753575801849e-01 2.6152622699737549e-01</leafValues></_>
        <_>
          <internalNodes>
            0 -1 706 8.0079007893800735e-03</internalNodes>
          <leafValues>
            -9.9603243172168732e-02 3.6383426189422607e-01</leafValues></_>
        <_>
          <internalNodes>
            0 -1 553 6.8558540078811347e-05</internalNodes>
          <leafValues>
            1.3069719076156616e-01 -2.7919763326644897e-01</leafValues></_>
        <_>
          <internalNodes>
            0 -1 628 -1.6492874128744006e-03</internalNodes>
          <leafValues>
            -4.5068767666816711e-01 8.1809230148792267e-02</leafValues></_>
        <_>
          <internalNodes>
            0 -1 654 3.0666585080325603e-03</internalNodes>
          <leafValues>
            -1.0830048471689224e-01 3.1370177865028381e-01</leafValues></_>
        <_>
          <internalNodes>
            0 -1 562 -9.1643169522285461e-02</internalNodes>
          <leafValues>
            -6.1057478189468384e-01 6.3257157802581787e-02</leafValues></_>
        <_>
          <internalNodes>
            0 -1 564 2.8163872193545103e-03</internalNodes>
          <leafValues>
            -1.4419183135032654e-01 2.5937926769256592e-01</leafValues></_>
        <_>
          <internalNodes>
            0 -1 378 -7.9055447131395340e-03</internalNodes>
          <leafValues>
            4.3615642189979553e-01 -8.4348887205123901e-02</leafValues></_>
        <_>
          <internalNodes>
            0 -1 319 3.4659229218959808e-02</internalNodes>
          <leafValues>
            6.6352009773254395e-02 -6.0566407442092896e-01</leafValues></_>
        <_>
          <internalNodes>
            0 -1 688 6.8595065386034548e-05</internalNodes>
          <leafValues>
            1.0988935083150864e-01 -2.9522758722305298e-01</leafValues></_>
        <_>
          <internalNodes>
            0 -1 313 1.2450870417524129e-04</internalNodes>
          <leafValues>
            1.0315510630607605e-01 -3.2835716009140015e-01</leafValues></_>
        <_>
          <internalNodes>
            0 -1 505 -1.7698379233479500e-03</internalNodes>
          <leafValues>
            5.4066693782806396e-01 -6.3626945018768311e-02</leafValues></_>
        <_>
          <internalNodes>
            0 -1 735 1.1950675398111343e-03</internalNodes>
          <leafValues>
            5.9371739625930786e-02 -6.5395319461822510e-01</leafValues></_>
        <_>
          <internalNodes>
            0 -1 736 6.0081551782786846e-04</internalNodes>
          <leafValues>
            -1.4145611226558685e-01 2.2946451604366302e-01</leafValues></_>
        <_>
          <internalNodes>
            0 -1 535 8.9015363482758403e-04</internalNodes>
          <leafValues>
            -1.2331664562225342e-01 2.5825172662734985e-01</leafValues></_>
        <_>
          <internalNodes>
            0 -1 417 8.6270686006173491e-04</internalNodes>
          <leafValues>
            -7.4940346181392670e-02 4.4651994109153748e-01</leafValues></_>
        <_>
          <internalNodes>
            0 -1 84 4.3367445468902588e-02</internalNodes>
          <leafValues>
            -4.3858818709850311e-02 7.4894911050796509e-01</leafValues></_>
        <_>
          <internalNodes>
            0 -1 125 -8.3650154992938042e-03</internalNodes>
          <leafValues>
            -7.5025224685668945e-01 6.4463287591934204e-02</leafValues></_>
        <_>
          <internalNodes>
            0 -1 150 1.7422363162040710e-01</internalNodes>
          <leafValues>
            -5.7176753878593445e-02 7.0656222105026245e-01</leafValues></_>
        <_>
          <internalNodes>
            0 -1 347 3.6014067009091377e-03</internalNodes>
          <leafValues>
            1.5033712983131409e-01 -2.4416370689868927e-01</leafValues></_>
        <_>
          <internalNodes>
            0 -1 537 -1.7665099352598190e-02</internalNodes>
          <leafValues>
            -2.7708581089973450e-01 1.5413768589496613e-01</leafValues></_>
        <_>
          <internalNodes>
            0 -1 402 1.7802573274821043e-03</internalNodes>
          <leafValues>
            -1.2136527150869370e-01 2.7910020947456360e-01</leafValues></_>
        <_>
          <internalNodes>
            0 -1 408 2.9061907902359962e-02</internalNodes>
          <leafValues>
            -1.9226539134979248e-01 1.8357719480991364e-01</leafValues></_>
        <_>
          <internalNodes>
            0 -1 379 2.2836574912071228e-01</internalNodes>
          <leafValues>
            -3.9970967918634415e-02 8.0699163675308228e-01</leafValues></_>
        <_>
          <internalNodes>
            0 -1 140 -5.0479218363761902e-02</internalNodes>
          <leafValues>
            -8.8633692264556885e-01 5.0426021218299866e-02</leafValues></_>
        <_>
          <internalNodes>
            0 -1 145 5.1800231449306011e-04</internalNodes>
          <leafValues>
            -1.7025375366210938e-01 2.0866888761520386e-01</leafValues></_>
        <_>
          <internalNodes>
            0 -1 246 8.0149043351411819e-03</internalNodes>
          <leafValues>
            -1.4770464599132538e-01 2.7084499597549438e-01</leafValues></_>
        <_>
          <internalNodes>
            0 -1 387 2.3906963178887963e-04</internalNodes>
          <leafValues>
            -1.8460755050182343e-01 1.8815973401069641e-01</leafValues></_>
        <_>
          <internalNodes>
            0 -1 268 1.1739294044673443e-02</internalNodes>
          <leafValues>
            6.9098159670829773e-02 -5.3182232379913330e-01</leafValues></_>
        <_>
          <internalNodes>
            0 -1 365 3.0698609771206975e-04</internalNodes>
          <leafValues>
            -1.5410909056663513e-01 2.2267909348011017e-01</leafValues></_>
        <_>
          <internalNodes>
            0 -1 544 8.8147661881521344e-04</internalNodes>
          <leafValues>
            -1.4901135861873627e-01 2.3501542210578918e-01</leafValues></_>
        <_>
          <internalNodes>
            0 -1 734 8.3414299297146499e-05</internalNodes>
          <leafValues>
            1.3460844755172729e-01 -2.8559848666191101e-01</leafValues></_>
        <_>
          <internalNodes>
            0 -1 62 1.3353407848626375e-03</internalNodes>
          <leafValues>
            8.9845903217792511e-02 -4.2955952882766724e-01</leafValues></_>
        <_>
          <internalNodes>
            0 -1 28 2.6443873066455126e-03</internalNodes>
          <leafValues>
            -1.0559175163507462e-01 3.7015804648399353e-01</leafValues></_></weakClassifiers></_>
    <!-- stage 19 -->
    <_>
      <maxWeakCount>53</maxWeakCount>
      <stageThreshold>-7.2383600473403931e-01</stageThreshold>
      <weakClassifiers>
        <_>
          <internalNodes>
            0 -1 220 4.7666586935520172e-02</internalNodes>
          <leafValues>
            2.9627117514610291e-01 -2.9600000381469727e-01</leafValues></_>
        <_>
          <internalNodes>
            0 -1 484 2.4317963048815727e-02</internalNodes>
          <leafValues>
            -8.2044593989849091e-02 3.5842335224151611e-01</leafValues></_>
        <_>
          <internalNodes>
            0 -1 175 1.8262416124343872e-02</internalNodes>
          <leafValues>
            -4.1803393512964249e-02 6.7125910520553589e-01</leafValues></_>
        <_>
          <internalNodes>
            0 -1 631 -2.0482038962654769e-04</internalNodes>
          <leafValues>
            2.6315167546272278e-01 -1.3705059885978699e-01</leafValues></_>
        <_>
          <internalNodes>
            0 -1 512 2.1018963307142258e-03</internalNodes>
          <leafValues>
            -1.4459432661533356e-01 2.3263050615787506e-01</leafValues></_>
        <_>
          <internalNodes>
            0 -1 436 -2.4657929316163063e-02</internalNodes>
          <leafValues>
            -7.1461051702499390e-01 5.8886628597974777e-02</leafValues></_>
        <_>
          <internalNodes>
            0 -1 686 3.5583276767283678e-03</internalNodes>
          <leafValues>
            -1.1774511635303497e-01 2.6095902919769287e-01</leafValues></_>
        <_>
          <internalNodes>
            0 -1 620 1.4298351015895605e-03</internalNodes>
          <leafValues>
            3.6752961575984955e-02 -9.2316573858261108e-01</leafValues></_>
        <_>
          <internalNodes>
            0 -1 358 4.3843570165336132e-03</internalNodes>
          <leafValues>
            -9.6404865384101868e-02 3.4687912464141846e-01</leafValues></_>
        <_>
          <internalNodes>
            0 -1 741 -3.5502633545547724e-04</internalNodes>
          <leafValues>
            -3.3689835667610168e-01 9.5667377114295959e-02</leafValues></_>
        <_>
          <internalNodes>
            0 -1 710 1.9118851050734520e-03</internalNodes>
          <leafValues>
            -9.2710658907890320e-02 3.4713485836982727e-01</leafValues></_>
        <_>
          <internalNodes>
            0 -1 625 -7.5440533692017198e-05</internalNodes>
          <leafValues>
            -3.2229179143905640e-01 1.3157887756824493e-01</leafValues></_>
        <_>
          <internalNodes>
            0 -1 399 1.0855430737137794e-02</internalNodes>
          <leafValues>
            -6.5081395208835602e-02 4.3059822916984558e-01</leafValues></_>
        <_>
          <internalNodes>
            0 -1 12 3.9890027046203613e-01</internalNodes>
          <leafValues>
            -6.3358806073665619e-02 4.7407764196395874e-01</leafValues></_>
        <_>
          <internalNodes>
            0 -1 33 -1.5428939150297083e-05</internalNodes>
          <leafValues>
            2.2405044734477997e-01 -1.7001692950725555e-01</leafValues></_>
        <_>
          <internalNodes>
            0 -1 44 6.3170446082949638e-04</internalNodes>
          <leafValues>
            -1.2601004540920258e-01 3.0011951923370361e-01</leafValues></_>
        <_>
          <internalNodes>
            0 -1 61 -2.4160591419786215e-03</internalNodes>
          <leafValues>
            2.0960535109043121e-01 -1.4956682920455933e-01</leafValues></_>
        <_>
          <internalNodes>
            0 -1 338 1.6217247321037576e-05</internalNodes>
          <leafValues>
            1.3826727867126465e-01 -2.3781935870647430e-01</leafValues></_>
        <_>
          <internalNodes>
            0 -1 197 -1.0513855377212167e-03</internalNodes>
          <leafValues>
            6.6928035020828247e-01 -5.3720127791166306e-02</leafValues></_>
        <_>
          <internalNodes>
            0 -1 60 -2.8275898657739162e-03</internalNodes>
          <leafValues>
            -6.8441796302795410e-01 5.6968674063682556e-02</leafValues></_>
        <_>
          <internalNodes>
            0 -1 762 3.0140762100927532e-04</internalNodes>
          <leafValues>
            -1.5478017926216125e-01 2.1051357686519623e-01</leafValues></_>
        <_>
          <internalNodes>
            0 -1 740 1.3134980574250221e-02</internalNodes>
          <leafValues>
            -7.7500566840171814e-02 4.3310007452964783e-01</leafValues></_>
        <_>
          <internalNodes>
            0 -1 617 2.6283040642738342e-02</internalNodes>
          <leafValues>
            -6.5526761114597321e-02 4.6657621860504150e-01</leafValues></_>
        <_>
          <internalNodes>
            0 -1 470 7.5145188020542264e-05</internalNodes>
          <leafValues>
            1.9865413010120392e-01 -1.8538333475589752e-01</leafValues></_>
        <_>
          <internalNodes>
            0 -1 622 -1.1417179484851658e-04</internalNodes>
          <leafValues>
            -2.9602965712547302e-01 1.1997271329164505e-01</leafValues></_>
        <_>
          <internalNodes>
            0 -1 508 -1.0074934922158718e-02</internalNodes>
          <leafValues>
            7.1309870481491089e-01 -4.2747870087623596e-02</leafValues></_>
        <_>
          <internalNodes>
            0 -1 636 7.1364454925060272e-05</internalNodes>
          <leafValues>
            1.2451481074094772e-01 -3.0217111110687256e-01</leafValues></_>
        <_>
          <internalNodes>
            0 -1 406 1.5253072977066040e-01</internalNodes>
          <leafValues>
            3.5973679274320602e-02 -9.1195994615554810e-01</leafValues></_>
        <_>
          <internalNodes>
            0 -1 122 -5.0590065075084567e-04</internalNodes>
          <leafValues>
            4.3584072589874268e-01 -8.2073673605918884e-02</leafValues></_>
        <_>
          <internalNodes>
            0 -1 120 -8.2726655818987638e-05</internalNodes>
          <leafValues>
            -3.3104777336120605e-01 1.0033273696899414e-01</leafValues></_>
        <_>
          <internalNodes>
            0 -1 660 -4.2486662277951837e-04</internalNodes>
          <leafValues>
            2.3703888058662415e-01 -1.4172407984733582e-01</leafValues></_>
        <_>
          <internalNodes>
            0 -1 642 -7.9326913692057133e-04</internalNodes>
          <leafValues>
            3.3812671899795532e-01 -9.8349981009960175e-02</leafValues></_>
        <_>
          <internalNodes>
            0 -1 288 2.3692622780799866e-03</internalNodes>
          <leafValues>
            5.1559176295995712e-02 -7.5257933139801025e-01</leafValues></_>
        <_>
          <internalNodes>
            0 -1 623 -4.3275786447338760e-04</internalNodes>
          <leafValues>
            2.3378977179527283e-01 -1.4488351345062256e-01</leafValues></_>
        <_>
          <internalNodes>
            0 -1 239 2.6698198780650273e-05</internalNodes>
          <leafValues>
            1.4652971923351288e-01 -2.2728113830089569e-01</leafValues></_>
        <_>
          <internalNodes>
            0 -1 700 5.3998478688299656e-03</internalNodes>
          <leafValues>
            3.3073112368583679e-02 -8.9830023050308228e-01</leafValues></_>
        <_>
          <internalNodes>
            0 -1 83 2.4696346372365952e-02</internalNodes>
          <leafValues>
            -1.1262287944555283e-01 3.0271422863006592e-01</leafValues></_>
        <_>
          <internalNodes>
            0 -1 43 -4.5723565854132175e-03</internalNodes>
          <leafValues>
            3.2481664419174194e-01 -1.0411237925291061e-01</leafValues></_>
        <_>
          <internalNodes>
            0 -1 748 -1.3322805170901120e-04</internalNodes>
          <leafValues>
            -3.0753320455551147e-01 1.0555790364742279e-01</leafValues></_>
        <_>
          <internalNodes>
            0 -1 709 -2.0130707416683435e-03</internalNodes>
          <leafValues>
            3.9599320292472839e-01 -8.6510151624679565e-02</leafValues></_>
        <_>
          <internalNodes>
            0 -1 532 -3.5394355654716492e-03</internalNodes>
          <leafValues>
            5.6077855825424194e-01 -5.3343892097473145e-02</leafValues></_>
        <_>
          <internalNodes>
            0 -1 230 1.0702491636038758e-05</internalNodes>
          <leafValues>
            1.4879457652568817e-01 -2.1962077915668488e-01</leafValues></_>
        <_>
          <internalNodes>
            0 -1 409 -9.2646647244691849e-03</internalNodes>
          <leafValues>
            -3.4447205066680908e-01 9.1917052865028381e-02</leafValues></_>
        <_>
          <internalNodes>
            0 -1 167 -2.1401450037956238e-02</internalNodes>
          <leafValues>
            6.9165968894958496e-01 -4.8497259616851807e-02</leafValues></_>
        <_>
          <internalNodes>
            0 -1 332 1.0496175382286310e-03</internalNodes>
          <leafValues>
            -1.0143099725246429e-01 3.1873750686645508e-01</leafValues></_>
        <_>
          <internalNodes>
            0 -1 82 -3.0910247005522251e-03</internalNodes>
          <leafValues>
            -4.3540480732917786e-01 8.4452070295810699e-02</leafValues></_>
        <_>
          <internalNodes>
            0 -1 366 2.1062580868601799e-02</internalNodes>
          <leafValues>
            -7.9296015202999115e-02 3.8311696052551270e-01</leafValues></_>
        <_>
          <internalNodes>
            0 -1 225 -4.5344457030296326e-03</internalNodes>
          <leafValues>
            1.8507586419582367e-01 -1.8644990026950836e-01</leafValues></_>
        <_>
          <internalNodes>
            0 -1 453 -4.4326775241643190e-04</internalNodes>
          <leafValues>
            3.6782133579254150e-01 -8.5657291114330292e-02</leafValues></_>
        <_>
          <internalNodes>
            0 -1 333 -1.0630436241626740e-02</internalNodes>
          <leafValues>
            -7.0391005277633667e-01 5.1265519112348557e-02</leafValues></_>
        <_>
          <internalNodes>
            0 -1 236 4.5420192182064056e-02</internalNodes>
          <leafValues>
            3.8413330912590027e-02 -7.2385054826736450e-01</leafValues></_>
        <_>
          <internalNodes>
            0 -1 373 -9.8508130759000778e-03</internalNodes>
          <leafValues>
            -4.9010923504829407e-01 6.3586242496967316e-02</leafValues></_>
        <_>
          <internalNodes>
            0 -1 752 -1.1326989624649286e-03</internalNodes>
          <leafValues>
            2.8500935435295105e-01 -1.1862680315971375e-01</leafValues></_></weakClassifiers></_></stages>
  <features>
    <_>
      <rects>
        <_>
          0 0 2 48 -1.</_>
        <_>
          1 0 1 48 2.</_></rects>
      <tilted>0</tilted></_>
    <_>
      <rects>
        <_>
          0 0 4 1 -1.</_>
        <_>
          2 0 2 1 2.</_></rects>
      <tilted>0</tilted></_>
    <_>
      <rects>
        <_>
          0 0 2 12 -1.</_>
        <_>
          0 4 2 4 3.</_></rects>
      <tilted>0</tilted></_>
    <_>
      <rects>
        <_>
          0 0 6 1 -1.</_>
        <_>
          3 0 3 1 2.</_></rects>
      <tilted>0</tilted></_>
    <_>
      <rects>
        <_>
          0 0 3 18 -1.</_>
        <_>
          0 6 3 6 3.</_></rects>
      <tilted>0</tilted></_>
    <_>
      <rects>
        <_>
          0 0 8 1 -1.</_>
        <_>
          4 0 4 1 2.</_></rects>
      <tilted>0</tilted></_>
    <_>
      <rects>
        <_>
          0 0 12 1 -1.</_>
        <_>
          6 0 6 1 2.</_></rects>
      <tilted>0</tilted></_>
    <_>
      <rects>
        <_>
          0 0 30 1 -1.</_>
        <_>
          15 0 15 1 2.</_></rects>
      <tilted>0</tilted></_>
    <_>
      <rects>
        <_>
          0 0 34 1 -1.</_>
        <_>
          17 0 17 1 2.</_></rects>
      <tilted>0</tilted></_>
    <_>
      <rects>
        <_>
          0 0 28 3 -1.</_>
        <_>
          0 1 28 1 3.</_></rects>
      <tilted>0</tilted></_>
    <_>
      <rects>
        <_>
          0 0 31 3 -1.</_>
        <_>
          0 1 31 1 3.</_></rects>
      <tilted>0</tilted></_>
    <_>
      <rects>
        <_>
          0 1 6 9 -1.</_>
        <_>
          0 4 6 3 3.</_></rects>
      <tilted>0</tilted></_>
    <_>
      <rects>
        <_>
          0 2 15 48 -1.</_>
        <_>
          5 18 5 16 9.</_></rects>
      <tilted>0</tilted></_>
    <_>
      <rects>
        <_>
          0 2 34 48 -1.</_>
        <_>
          0 14 34 24 2.</_></rects>
      <tilted>0</tilted></_>
    <_>
      <rects>
        <_>
          0 4 1 18 -1.</_>
        <_>
          0 10 1 6 3.</_></rects>
      <tilted>0</tilted></_>
    <_>
      <rects>
        <_>
          0 4 1 24 -1.</_>
        <_>
          0 16 1 12 2.</_></rects>
      <tilted>0</tilted></_>
    <_>
      <rects>
        <_>
          0 4 8 26 -1.</_>
        <_>
          0 4 4 13 2.</_>
        <_>
          4 17 4 13 2.</_></rects>
      <tilted>0</tilted></_>
    <_>
      <rects>
        <_>
          0 7 4 24 -1.</_>
        <_>
          0 7 2 12 2.</_>
        <_>
          2 19 2 12 2.</_></rects>
      <tilted>0</tilted></_>
    <_>
      <rects>
        <_>
          0 7 4 32 -1.</_>
        <_>
          2 7 2 32 2.</_></rects>
      <tilted>0</tilted></_>
    <_>
      <rects>
        <_>
          0 7 6 26 -1.</_>
        <_>
          0 7 3 13 2.</_>
        <_>
          3 20 3 13 2.</_></rects>
      <tilted>0</tilted></_>
    <_>
      <rects>
        <_>
          0 9 3 18 -1.</_>
        <_>
          1 9 1 18 3.</_></rects>
      <tilted>0</tilted></_>
    <_>
      <rects>
        <_>
          0 10 1 9 -1.</_>
        <_>
          0 13 1 3 3.</_></rects>
      <tilted>0</tilted></_>
    <_>
      <rects>
        <_>
          0 10 4 12 -1.</_>
        <_>
          0 10 2 6 2.</_>
        <_>
          2 16 2 6 2.</_></rects>
      <tilted>0</tilted></_>
    <_>
      <rects>
        <_>
          0 10 4 26 -1.</_>
        <_>
          0 10 2 13 2.</_>
        <_>
          2 23 2 13 2.</_></rects>
      <tilted>0</tilted></_>
    <_>
      <rects>
        <_>
          0 10 9 39 -1.</_>
        <_>
          3 23 3 13 9.</_></rects>
      <tilted>0</tilted></_>
    <_>
      <rects>
        <_>
          0 11 26 4 -1.</_>
        <_>
          0 13 26 2 2.</_></rects>
      <tilted>0</tilted></_>
    <_>
      <rects>
        <_>
          0 12 3 2 -1.</_>
        <_>
          0 13 3 1 2.</_></rects>
      <tilted>0</tilted></_>
    <_>
      <rects>
        <_>
          0 12 14 27 -1.</_>
        <_>
          7 12 7 27 2.</_></rects>
      <tilted>0</tilted></_>
    <_>
      <rects>
        <_>
          0 13 2 22 -1.</_>
        <_>
          1 13 1 22 2.</_></rects>
      <tilted>0</tilted></_>
    <_>
      <rects>
        <_>
          0 13 4 15 -1.</_>
        <_>
          2 13 2 15 2.</_></rects>
      <tilted>0</tilted></_>
    <_>
      <rects>
        <_>
          0 13 6 12 -1.</_>
        <_>
          0 13 3 6 2.</_>
        <_>
          3 19 3 6 2.</_></rects>
      <tilted>0</tilted></_>
    <_>
      <rects>
        <_>
          0 14 3 2 -1.</_>
        <_>
          0 15 3 1 2.</_></rects>
      <tilted>0</tilted></_>
    <_>
      <rects>
        <_>
          0 15 10 20 -1.</_>
        <_>
          0 25 10 10 2.</_></rects>
      <tilted>0</tilted></_>
    <_>
      <rects>
        <_>
          0 16 2 10 -1.</_>
        <_>
          1 16 1 10 2.</_></rects>
      <tilted>0</tilted></_>
    <_>
      <rects>
        <_>
          0 16 2 20 -1.</_>
        <_>
          1 16 1 20 2.</_></rects>
      <tilted>0</tilted></_>
    <_>
      <rects>
        <_>
          0 16 6 14 -1.</_>
        <_>
          0 16 3 7 2.</_>
        <_>
          3 23 3 7 2.</_></rects>
      <tilted>0</tilted></_>
    <_>
      <rects>
        <_>
          0 16 6 20 -1.</_>
        <_>
          3 16 3 20 2.</_></rects>
      <tilted>0</tilted></_>
    <_>
      <rects>
        <_>
          0 17 2 6 -1.</_>
        <_>
          0 17 1 3 2.</_>
        <_>
          1 20 1 3 2.</_></rects>
      <tilted>0</tilted></_>
    <_>
      <rects>
        <_>
          0 17 6 9 -1.</_>
        <_>
          2 17 2 9 3.</_></rects>
      <tilted>0</tilted></_>
    <_>
      <rects>
        <_>
          0 17 4 17 -1.</_>
        <_>
          2 17 2 17 2.</_></rects>
      <tilted>0</tilted></_>
    <_>
      <rects>
        <_>
          0 17 6 22 -1.</_>
        <_>
          3 17 3 22 2.</_></rects>
      <tilted>0</tilted></_>
    <_>
      <rects>
        <_>
          0 18 3 12 -1.</_>
        <_>
          1 18 1 12 3.</_></rects>
      <tilted>0</tilted></_>
    <_>
      <rects>
        <_>
          0 18 28 24 -1.</_>
        <_>
          14 18 14 24 2.</_></rects>
      <tilted>0</tilted></_>
    <_>
      <rects>
        <_>
          0 19 10 5 -1.</_>
        <_>
          5 19 5 5 2.</_></rects>
      <tilted>0</tilted></_>
    <_>
      <rects>
        <_>
          0 20 3 9 -1.</_>
        <_>
          1 20 1 9 3.</_></rects>
      <tilted>0</tilted></_>
    <_>
      <rects>
        <_>
          0 20 2 12 -1.</_>
        <_>
          1 20 1 12 2.</_></rects>
      <tilted>0</tilted></_>
    <_>
      <rects>
        <_>
          0 20 4 24 -1.</_>
        <_>
          0 20 2 12 2.</_>
        <_>
          2 32 2 12 2.</_></rects>
      <tilted>0</tilted></_>
    <_>
      <rects>
        <_>
          0 20 8 2 -1.</_>
        <_>
          4 20 4 2 2.</_></rects>
      <tilted>0</tilted></_>
    <_>
      <rects>
        <_>
          0 24 21 3 -1.</_>
        <_>
          0 25 21 1 3.</_></rects>
      <tilted>0</tilted></_>
    <_>
      <rects>
        <_>
          0 26 2 9 -1.</_>
        <_>
          1 26 1 9 2.</_></rects>
      <tilted>0</tilted></_>
    <_>
      <rects>
        <_>
          0 26 25 3 -1.</_>
        <_>
          0 27 25 1 3.</_></rects>
      <tilted>0</tilted></_>
    <_>
      <rects>
        <_>
          0 27 3 4 -1.</_>
        <_>
          1 27 1 4 3.</_></rects>
      <tilted>0</tilted></_>
    <_>
      <rects>
        <_>
          0 27 2 4 -1.</_>
        <_>
          0 29 2 2 2.</_></rects>
      <tilted>0</tilted></_>
    <_>
      <rects>
        <_>
          0 27 12 16 -1.</_>
        <_>
          0 27 6 8 2.</_>
        <_>
          6 35 6 8 2.</_></rects>
      <tilted>0</tilted></_>
    <_>
      <rects>
        <_>
          0 28 14 18 -1.</_>
        <_>
          0 28 7 9 2.</_>
        <_>
          7 37 7 9 2.</_></rects>
      <tilted>0</tilted></_>
    <_>
      <rects>
        <_>
          0 29 2 3 -1.</_>
        <_>
          1 29 1 3 2.</_></rects>
      <tilted>0</tilted></_>
    <_>
      <rects>
        <_>
          0 30 12 18 -1.</_>
        <_>
          0 30 6 9 2.</_>
        <_>
          6 39 6 9 2.</_></rects>
      <tilted>0</tilted></_>
    <_>
      <rects>
        <_>
          0 32 31 18 -1.</_>
        <_>
          0 41 31 9 2.</_></rects>
      <tilted>0</tilted></_>
    <_>
      <rects>
        <_>
          0 33 2 10 -1.</_>
        <_>
          0 38 2 5 2.</_></rects>
      <tilted>0</tilted></_>
    <_>
      <rects>
        <_>
          0 34 20 16 -1.</_>
        <_>
          0 34 10 8 2.</_>
        <_>
          10 42 10 8 2.</_></rects>
      <tilted>0</tilted></_>
    <_>
      <rects>
        <_>
          0 36 1 9 -1.</_>
        <_>
          0 39 1 3 3.</_></rects>
      <tilted>0</tilted></_>
    <_>
      <rects>
        <_>
          0 38 22 6 -1.</_>
        <_>
          0 40 22 2 3.</_></rects>
      <tilted>0</tilted></_>
    <_>
      <rects>
        <_>
          0 42 1 8 -1.</_>
        <_>
          0 46 1 4 2.</_></rects>
      <tilted>0</tilted></_>
    <_>
      <rects>
        <_>
          0 45 2 2 -1.</_>
        <_>
          0 45 1 1 2.</_>
        <_>
          1 46 1 1 2.</_></rects>
      <tilted>0</tilted></_>
    <_>
      <rects>
        <_>
          0 45 8 1 -1.</_>
        <_>
          4 45 4 1 2.</_></rects>
      <tilted>0</tilted></_>
    <_>
      <rects>
        <_>
          0 45 15 3 -1.</_>
        <_>
          5 46 5 1 9.</_></rects>
      <tilted>0</tilted></_>
    <_>
      <rects>
        <_>
          1 0 15 3 -1.</_>
        <_>
          6 1 5 1 9.</_></rects>
      <tilted>0</tilted></_>
    <_>
      <rects>
        <_>
          1 0 15 2 -1.</_>
        <_>
          6 0 5 2 3.</_></rects>
      <tilted>0</tilted></_>
    <_>
      <rects>
        <_>
          1 0 32 24 -1.</_>
        <_>
          1 12 32 12 2.</_></rects>
      <tilted>0</tilted></_>
    <_>
      <rects>
        <_>
          1 1 20 22 -1.</_>
        <_>
          1 12 20 11 2.</_></rects>
      <tilted>0</tilted></_>
    <_>
      <rects>
        <_>
          1 2 3 1 -1.</_>
        <_>
          2 2 1 1 3.</_></rects>
      <tilted>0</tilted></_>
    <_>
      <rects>
        <_>
          1 6 6 1 -1.</_>
        <_>
          3 8 2 1 3.</_></rects>
      <tilted>1</tilted></_>
    <_>
      <rects>
        <_>
          1 6 28 4 -1.</_>
        <_>
          1 7 28 2 2.</_></rects>
      <tilted>0</tilted></_>
    <_>
      <rects>
        <_>
          1 6 31 12 -1.</_>
        <_>
          1 12 31 6 2.</_></rects>
      <tilted>0</tilted></_>
    <_>
      <rects>
        <_>
          1 8 2 16 -1.</_>
        <_>
          1 12 2 8 2.</_></rects>
      <tilted>0</tilted></_>
    <_>
      <rects>
        <_>
          1 8 26 8 -1.</_>
        <_>
          1 8 13 4 2.</_>
        <_>
          14 12 13 4 2.</_></rects>
      <tilted>0</tilted></_>
    <_>
      <rects>
        <_>
          1 11 4 8 -1.</_>
        <_>
          3 11 2 8 2.</_></rects>
      <tilted>0</tilted></_>
    <_>
      <rects>
        <_>
          1 12 22 4 -1.</_>
        <_>
          1 12 11 2 2.</_>
        <_>
          12 14 11 2 2.</_></rects>
      <tilted>0</tilted></_>
    <_>
      <rects>
        <_>
          1 15 2 4 -1.</_>
        <_>
          1 15 1 2 2.</_>
        <_>
          2 17 1 2 2.</_></rects>
      <tilted>0</tilted></_>
    <_>
      <rects>
        <_>
          1 16 8 13 -1.</_>
        <_>
          3 16 4 13 2.</_></rects>
      <tilted>0</tilted></_>
    <_>
      <rects>
        <_>
          1 17 2 2 -1.</_>
        <_>
          2 17 1 2 2.</_></rects>
      <tilted>0</tilted></_>
    <_>
      <rects>
        <_>
          1 17 2 22 -1.</_>
        <_>
          1 17 1 11 2.</_>
        <_>
          2 28 1 11 2.</_></rects>
      <tilted>0</tilted></_>
    <_>
      <rects>
        <_>
          1 17 27 3 -1.</_>
        <_>
          1 18 27 1 3.</_></rects>
      <tilted>0</tilted></_>
    <_>
      <rects>
        <_>
          1 18 12 9 -1.</_>
        <_>
          5 21 4 3 9.</_></rects>
      <tilted>0</tilted></_>
    <_>
      <rects>
        <_>
          1 28 10 14 -1.</_>
        <_>
          6 28 5 14 2.</_></rects>
      <tilted>0</tilted></_>
    <_>
      <rects>
        <_>
          1 48 12 2 -1.</_>
        <_>
          4 48 6 2 2.</_></rects>
      <tilted>0</tilted></_>
    <_>
      <rects>
        <_>
          2 0 12 7 -1.</_>
        <_>
          6 0 4 7 3.</_></rects>
      <tilted>0</tilted></_>
    <_>
      <rects>
        <_>
          2 0 5 12 -1.</_>
        <_>
          2 4 5 4 3.</_></rects>
      <tilted>0</tilted></_>
    <_>
      <rects>
        <_>
          2 0 24 1 -1.</_>
        <_>
          8 0 12 1 2.</_></rects>
      <tilted>0</tilted></_>
    <_>
      <rects>
        <_>
          2 0 21 3 -1.</_>
        <_>
          9 0 7 3 3.</_></rects>
      <tilted>0</tilted></_>
    <_>
      <rects>
        <_>
          2 0 26 3 -1.</_>
        <_>
          2 1 26 1 3.</_></rects>
      <tilted>0</tilted></_>
    <_>
      <rects>
        <_>
          2 0 33 26 -1.</_>
        <_>
          2 13 33 13 2.</_></rects>
      <tilted>0</tilted></_>
    <_>
      <rects>
        <_>
          2 4 25 14 -1.</_>
        <_>
          2 11 25 7 2.</_></rects>
      <tilted>0</tilted></_>
    <_>
      <rects>
        <_>
          2 5 2 12 -1.</_>
        <_>
          2 9 2 4 3.</_></rects>
      <tilted>0</tilted></_>
    <_>
      <rects>
        <_>
          2 5 4 40 -1.</_>
        <_>
          2 25 4 20 2.</_></rects>
      <tilted>0</tilted></_>
    <_>
      <rects>
        <_>
          2 7 1 20 -1.</_>
        <_>
          2 17 1 10 2.</_></rects>
      <tilted>0</tilted></_>
    <_>
      <rects>
        <_>
          2 9 1 28 -1.</_>
        <_>
          2 16 1 14 2.</_></rects>
      <tilted>0</tilted></_>
    <_>
      <rects>
        <_>
          2 9 26 6 -1.</_>
        <_>
          2 9 13 3 2.</_>
        <_>
          15 12 13 3 2.</_></rects>
      <tilted>0</tilted></_>
    <_>
      <rects>
        <_>
          2 12 2 1 -1.</_>
        <_>
          3 12 1 1 2.</_></rects>
      <tilted>0</tilted></_>
    <_>
      <rects>
        <_>
          2 12 8 16 -1.</_>
        <_>
          2 12 4 8 2.</_>
        <_>
          6 20 4 8 2.</_></rects>
      <tilted>0</tilted></_>
    <_>
      <rects>
        <_>
          2 12 16 4 -1.</_>
        <_>
          2 12 8 2 2.</_>
        <_>
          10 14 8 2 2.</_></rects>
      <tilted>0</tilted></_>
    <_>
      <rects>
        <_>
          2 12 29 2 -1.</_>
        <_>
          2 13 29 1 2.</_></rects>
      <tilted>0</tilted></_>
    <_>
      <rects>
        <_>
          2 14 2 1 -1.</_>
        <_>
          2 14 1 1 2.</_></rects>
      <tilted>1</tilted></_>
    <_>
      <rects>
        <_>
          2 14 6 20 -1.</_>
        <_>
          2 14 3 10 2.</_>
        <_>
          5 24 3 10 2.</_></rects>
      <tilted>0</tilted></_>
    <_>
      <rects>
        <_>
          2 15 2 19 -1.</_>
        <_>
          3 15 1 19 2.</_></rects>
      <tilted>0</tilted></_>
    <_>
      <rects>
        <_>
          2 15 4 28 -1.</_>
        <_>
          2 29 4 14 2.</_></rects>
      <tilted>0</tilted></_>
    <_>
      <rects>
        <_>
          2 17 6 10 -1.</_>
        <_>
          2 17 3 5 2.</_>
        <_>
          5 22 3 5 2.</_></rects>
      <tilted>0</tilted></_>
    <_>
      <rects>
        <_>
          2 20 5 6 -1.</_>
        <_>
          2 22 5 2 3.</_></rects>
      <tilted>0</tilted></_>
    <_>
      <rects>
        <_>
          2 23 3 1 -1.</_>
        <_>
          3 23 1 1 3.</_></rects>
      <tilted>0</tilted></_>
    <_>
      <rects>
        <_>
          2 23 12 3 -1.</_>
        <_>
          6 23 4 3 3.</_></rects>
      <tilted>0</tilted></_>
    <_>
      <rects>
        <_>
          2 23 26 3 -1.</_>
        <_>
          2 24 26 1 3.</_></rects>
      <tilted>0</tilted></_>
    <_>
      <rects>
        <_>
          2 23 26 27 -1.</_>
        <_>
          2 32 26 9 3.</_></rects>
      <tilted>0</tilted></_>
    <_>
      <rects>
        <_>
          2 24 15 5 -1.</_>
        <_>
          7 24 5 5 3.</_></rects>
      <tilted>0</tilted></_>
    <_>
      <rects>
        <_>
          2 24 18 2 -1.</_>
        <_>
          11 24 9 2 2.</_></rects>
      <tilted>0</tilted></_>
    <_>
      <rects>
        <_>
          2 25 4 7 -1.</_>
        <_>
          3 25 2 7 2.</_></rects>
      <tilted>0</tilted></_>
    <_>
      <rects>
        <_>
          2 27 8 3 -1.</_>
        <_>
          4 27 4 3 2.</_></rects>
      <tilted>0</tilted></_>
    <_>
      <rects>
        <_>
          3 0 4 1 -1.</_>
        <_>
          5 0 2 1 2.</_></rects>
      <tilted>0</tilted></_>
    <_>
      <rects>
        <_>
          3 0 12 2 -1.</_>
        <_>
          6 0 6 2 2.</_></rects>
      <tilted>0</tilted></_>
    <_>
      <rects>
        <_>
          3 2 6 13 -1.</_>
        <_>
          6 2 3 13 2.</_></rects>
      <tilted>0</tilted></_>
    <_>
      <rects>
        <_>
          3 3 30 1 -1.</_>
        <_>
          18 3 15 1 2.</_></rects>
      <tilted>0</tilted></_>
    <_>
      <rects>
        <_>
          3 7 1 3 -1.</_>
        <_>
          3 8 1 1 3.</_></rects>
      <tilted>0</tilted></_>
    <_>
      <rects>
        <_>
          3 7 10 3 -1.</_>
        <_>
          3 7 5 3 2.</_></rects>
      <tilted>1</tilted></_>
    <_>
      <rects>
        <_>
          3 9 3 3 -1.</_>
        <_>
          4 9 1 3 3.</_></rects>
      <tilted>0</tilted></_>
    <_>
      <rects>
        <_>
          3 9 17 2 -1.</_>
        <_>
          3 10 17 1 2.</_></rects>
      <tilted>0</tilted></_>
    <_>
      <rects>
        <_>
          3 9 28 2 -1.</_>
        <_>
          3 10 28 1 2.</_></rects>
      <tilted>0</tilted></_>
    <_>
      <rects>
        <_>
          3 10 4 40 -1.</_>
        <_>
          4 10 2 40 2.</_></rects>
      <tilted>0</tilted></_>
    <_>
      <rects>
        <_>
          3 11 8 3 -1.</_>
        <_>
          5 13 4 3 2.</_></rects>
      <tilted>1</tilted></_>
    <_>
      <rects>
        <_>
          3 11 6 4 -1.</_>
        <_>
          3 11 3 2 2.</_>
        <_>
          6 13 3 2 2.</_></rects>
      <tilted>0</tilted></_>
    <_>
      <rects>
        <_>
          3 13 18 4 -1.</_>
        <_>
          3 13 9 2 2.</_>
        <_>
          12 15 9 2 2.</_></rects>
      <tilted>0</tilted></_>
    <_>
      <rects>
        <_>
          3 13 24 4 -1.</_>
        <_>
          3 13 12 2 2.</_>
        <_>
          15 15 12 2 2.</_></rects>
      <tilted>0</tilted></_>
    <_>
      <rects>
        <_>
          3 14 8 12 -1.</_>
        <_>
          3 14 4 6 2.</_>
        <_>
          7 20 4 6 2.</_></rects>
      <tilted>0</tilted></_>
    <_>
      <rects>
        <_>
          3 14 32 6 -1.</_>
        <_>
          3 14 16 3 2.</_>
        <_>
          19 17 16 3 2.</_></rects>
      <tilted>0</tilted></_>
    <_>
      <rects>
        <_>
          3 16 6 17 -1.</_>
        <_>
          6 16 3 17 2.</_></rects>
      <tilted>0</tilted></_>
    <_>
      <rects>
        <_>
          3 16 20 2 -1.</_>
        <_>
          3 16 10 1 2.</_>
        <_>
          13 17 10 1 2.</_></rects>
      <tilted>0</tilted></_>
    <_>
      <rects>
        <_>
          3 19 3 1 -1.</_>
        <_>
          4 19 1 1 3.</_></rects>
      <tilted>0</tilted></_>
    <_>
      <rects>
        <_>
          3 21 6 26 -1.</_>
        <_>
          3 21 3 13 2.</_>
        <_>
          6 34 3 13 2.</_></rects>
      <tilted>0</tilted></_>
    <_>
      <rects>
        <_>
          3 22 8 7 -1.</_>
        <_>
          5 22 4 7 2.</_></rects>
      <tilted>0</tilted></_>
    <_>
      <rects>
        <_>
          3 22 4 3 -1.</_>
        <_>
          2 23 4 1 3.</_></rects>
      <tilted>1</tilted></_>
    <_>
      <rects>
        <_>
          3 23 9 9 -1.</_>
        <_>
          6 26 3 3 9.</_></rects>
      <tilted>0</tilted></_>
    <_>
      <rects>
        <_>
          3 23 6 3 -1.</_>
        <_>
          3 24 6 1 3.</_></rects>
      <tilted>0</tilted></_>
    <_>
      <rects>
        <_>
          3 23 14 9 -1.</_>
        <_>
          10 23 7 9 2.</_></rects>
      <tilted>0</tilted></_>
    <_>
      <rects>
        <_>
          3 23 32 3 -1.</_>
        <_>
          3 24 32 1 3.</_></rects>
      <tilted>0</tilted></_>
    <_>
      <rects>
        <_>
          3 24 3 3 -1.</_>
        <_>
          3 25 3 1 3.</_></rects>
      <tilted>0</tilted></_>
    <_>
      <rects>
        <_>
          3 24 8 10 -1.</_>
        <_>
          3 24 4 5 2.</_>
        <_>
          7 29 4 5 2.</_></rects>
      <tilted>0</tilted></_>
    <_>
      <rects>
        <_>
          3 26 2 6 -1.</_>
        <_>
          3 26 1 3 2.</_>
        <_>
          4 29 1 3 2.</_></rects>
      <tilted>0</tilted></_>
    <_>
      <rects>
        <_>
          3 27 9 1 -1.</_>
        <_>
          6 27 3 1 3.</_></rects>
      <tilted>0</tilted></_>
    <_>
      <rects>
        <_>
          3 40 16 2 -1.</_>
        <_>
          7 40 8 2 2.</_></rects>
      <tilted>0</tilted></_>
    <_>
      <rects>
        <_>
          3 47 32 3 -1.</_>
        <_>
          3 48 32 1 3.</_></rects>
      <tilted>0</tilted></_>
    <_>
      <rects>
        <_>
          4 3 6 12 -1.</_>
        <_>
          7 3 3 12 2.</_></rects>
      <tilted>0</tilted></_>
    <_>
      <rects>
        <_>
          4 11 1 16 -1.</_>
        <_>
          4 15 1 8 2.</_></rects>
      <tilted>0</tilted></_>
    <_>
      <rects>
        <_>
          4 11 18 21 -1.</_>
        <_>
          10 18 6 7 9.</_></rects>
      <tilted>0</tilted></_>
    <_>
      <rects>
        <_>
          4 13 22 6 -1.</_>
        <_>
          4 13 11 3 2.</_>
        <_>
          15 16 11 3 2.</_></rects>
      <tilted>0</tilted></_>
    <_>
      <rects>
        <_>
          4 14 10 10 -1.</_>
        <_>
          4 14 5 5 2.</_>
        <_>
          9 19 5 5 2.</_></rects>
      <tilted>0</tilted></_>
    <_>
      <rects>
        <_>
          4 17 3 16 -1.</_>
        <_>
          4 25 3 8 2.</_></rects>
      <tilted>0</tilted></_>
    <_>
      <rects>
        <_>
          4 18 3 1 -1.</_>
        <_>
          5 18 1 1 3.</_></rects>
      <tilted>0</tilted></_>
    <_>
      <rects>
        <_>
          4 18 2 8 -1.</_>
        <_>
          4 18 1 4 2.</_>
        <_>
          5 22 1 4 2.</_></rects>
      <tilted>0</tilted></_>
    <_>
      <rects>
        <_>
          4 19 29 3 -1.</_>
        <_>
          4 20 29 1 3.</_></rects>
      <tilted>0</tilted></_>
    <_>
      <rects>
        <_>
          4 20 30 8 -1.</_>
        <_>
          4 20 15 4 2.</_>
        <_>
          19 24 15 4 2.</_></rects>
      <tilted>0</tilted></_>
    <_>
      <rects>
        <_>
          4 21 13 9 -1.</_>
        <_>
          4 24 13 3 3.</_></rects>
      <tilted>0</tilted></_>
    <_>
      <rects>
        <_>
          4 22 12 4 -1.</_>
        <_>
          7 22 6 4 2.</_></rects>
      <tilted>0</tilted></_>
    <_>
      <rects>
        <_>
          4 24 26 2 -1.</_>
        <_>
          4 25 26 1 2.</_></rects>
      <tilted>0</tilted></_>
    <_>
      <rects>
        <_>
          4 24 26 3 -1.</_>
        <_>
          4 25 26 1 3.</_></rects>
      <tilted>0</tilted></_>
    <_>
      <rects>
        <_>
          4 25 4 2 -1.</_>
        <_>
          5 25 2 2 2.</_></rects>
      <tilted>0</tilted></_>
    <_>
      <rects>
        <_>
          4 25 4 12 -1.</_>
        <_>
          4 25 2 6 2.</_>
        <_>
          6 31 2 6 2.</_></rects>
      <tilted>0</tilted></_>
    <_>
      <rects>
        <_>
          4 26 9 1 -1.</_>
        <_>
          7 26 3 1 3.</_></rects>
      <tilted>0</tilted></_>
    <_>
      <rects>
        <_>
          4 27 12 3 -1.</_>
        <_>
          8 28 4 1 9.</_></rects>
      <tilted>0</tilted></_>
    <_>
      <rects>
        <_>
          4 30 16 4 -1.</_>
        <_>
          4 30 16 2 2.</_></rects>
      <tilted>1</tilted></_>
    <_>
      <rects>
        <_>
          4 36 22 6 -1.</_>
        <_>
          4 36 11 3 2.</_>
        <_>
          15 39 11 3 2.</_></rects>
      <tilted>0</tilted></_>
    <_>
      <rects>
        <_>
          4 42 4 4 -1.</_>
        <_>
          3 43 4 2 2.</_></rects>
      <tilted>1</tilted></_>
    <_>
      <rects>
        <_>
          4 47 6 3 -1.</_>
        <_>
          7 47 3 3 2.</_></rects>
      <tilted>0</tilted></_>
    <_>
      <rects>
        <_>
          4 49 12 1 -1.</_>
        <_>
          8 49 4 1 3.</_></rects>
      <tilted>0</tilted></_>
    <_>
      <rects>
        <_>
          5 0 14 1 -1.</_>
        <_>
          12 0 7 1 2.</_></rects>
      <tilted>0</tilted></_>
    <_>
      <rects>
        <_>
          5 0 14 4 -1.</_>
        <_>
          12 0 7 4 2.</_></rects>
      <tilted>0</tilted></_>
    <_>
      <rects>
        <_>
          5 1 2 18 -1.</_>
        <_>
          5 1 1 9 2.</_>
        <_>
          6 10 1 9 2.</_></rects>
      <tilted>0</tilted></_>
    <_>
      <rects>
        <_>
          5 1 1 28 -1.</_>
        <_>
          5 15 1 14 2.</_></rects>
      <tilted>0</tilted></_>
    <_>
      <rects>
        <_>
          5 4 1 33 -1.</_>
        <_>
          5 15 1 11 3.</_></rects>
      <tilted>0</tilted></_>
    <_>
      <rects>
        <_>
          5 5 30 36 -1.</_>
        <_>
          5 14 30 18 2.</_></rects>
      <tilted>0</tilted></_>
    <_>
      <rects>
        <_>
          5 7 30 5 -1.</_>
        <_>
          5 7 15 5 2.</_></rects>
      <tilted>1</tilted></_>
    <_>
      <rects>
        <_>
          5 8 6 7 -1.</_>
        <_>
          7 8 2 7 3.</_></rects>
      <tilted>0</tilted></_>
    <_>
      <rects>
        <_>
          5 9 4 8 -1.</_>
        <_>
          5 9 2 4 2.</_>
        <_>
          7 13 2 4 2.</_></rects>
      <tilted>0</tilted></_>
    <_>
      <rects>
        <_>
          5 11 3 15 -1.</_>
        <_>
          6 11 1 15 3.</_></rects>
      <tilted>0</tilted></_>
    <_>
      <rects>
        <_>
          5 13 6 22 -1.</_>
        <_>
          5 13 3 11 2.</_>
        <_>
          8 24 3 11 2.</_></rects>
      <tilted>0</tilted></_>
    <_>
      <rects>
        <_>
          5 16 6 16 -1.</_>
        <_>
          5 16 3 8 2.</_>
        <_>
          8 24 3 8 2.</_></rects>
      <tilted>0</tilted></_>
    <_>
      <rects>
        <_>
          5 21 27 12 -1.</_>
        <_>
          5 27 27 6 2.</_></rects>
      <tilted>0</tilted></_>
    <_>
      <rects>
        <_>
          5 21 30 28 -1.</_>
        <_>
          5 28 30 14 2.</_></rects>
      <tilted>0</tilted></_>
    <_>
      <rects>
        <_>
          5 22 12 3 -1.</_>
        <_>
          11 22 6 3 2.</_></rects>
      <tilted>0</tilted></_>
    <_>
      <rects>
        <_>
          5 23 1 3 -1.</_>
        <_>
          5 24 1 1 3.</_></rects>
      <tilted>0</tilted></_>
    <_>
      <rects>
        <_>
          5 23 4 4 -1.</_>
        <_>
          4 24 4 2 2.</_></rects>
      <tilted>1</tilted></_>
    <_>
      <rects>
        <_>
          5 24 9 5 -1.</_>
        <_>
          8 27 3 5 3.</_></rects>
      <tilted>1</tilted></_>
    <_>
      <rects>
        <_>
          5 25 12 5 -1.</_>
        <_>
          9 25 4 5 3.</_></rects>
      <tilted>0</tilted></_>
    <_>
      <rects>
        <_>
          5 25 15 4 -1.</_>
        <_>
          10 25 5 4 3.</_></rects>
      <tilted>0</tilted></_>
    <_>
      <rects>
        <_>
          5 25 24 3 -1.</_>
        <_>
          17 25 12 3 2.</_></rects>
      <tilted>0</tilted></_>
    <_>
      <rects>
        <_>
          5 26 26 1 -1.</_>
        <_>
          18 26 13 1 2.</_></rects>
      <tilted>0</tilted></_>
    <_>
      <rects>
        <_>
          5 26 30 24 -1.</_>
        <_>
          5 34 30 8 3.</_></rects>
      <tilted>0</tilted></_>
    <_>
      <rects>
        <_>
          5 28 9 3 -1.</_>
        <_>
          8 28 3 3 3.</_></rects>
      <tilted>0</tilted></_>
    <_>
      <rects>
        <_>
          5 34 27 8 -1.</_>
        <_>
          5 38 27 4 2.</_></rects>
      <tilted>0</tilted></_>
    <_>
      <rects>
        <_>
          5 44 26 2 -1.</_>
        <_>
          5 45 26 1 2.</_></rects>
      <tilted>0</tilted></_>
    <_>
      <rects>
        <_>
          6 0 3 4 -1.</_>
        <_>
          7 0 1 4 3.</_></rects>
      <tilted>0</tilted></_>
    <_>
      <rects>
        <_>
          6 0 24 1 -1.</_>
        <_>
          12 0 12 1 2.</_></rects>
      <tilted>0</tilted></_>
    <_>
      <rects>
        <_>
          6 2 7 3 -1.</_>
        <_>
          6 3 7 1 3.</_></rects>
      <tilted>0</tilted></_>
    <_>
      <rects>
        <_>
          6 3 2 23 -1.</_>
        <_>
          7 3 1 23 2.</_></rects>
      <tilted>0</tilted></_>
    <_>
      <rects>
        <_>
          6 3 2 6 -1.</_>
        <_>
          4 5 2 2 3.</_></rects>
      <tilted>1</tilted></_>
    <_>
      <rects>
        <_>
          6 4 3 1 -1.</_>
        <_>
          7 4 1 1 3.</_></rects>
      <tilted>0</tilted></_>
    <_>
      <rects>
        <_>
          6 4 9 44 -1.</_>
        <_>
          6 15 9 22 2.</_></rects>
      <tilted>0</tilted></_>
    <_>
      <rects>
        <_>
          6 5 8 5 -1.</_>
        <_>
          8 7 4 5 2.</_></rects>
      <tilted>1</tilted></_>
    <_>
      <rects>
        <_>
          6 9 10 6 -1.</_>
        <_>
          6 9 5 6 2.</_></rects>
      <tilted>1</tilted></_>
    <_>
      <rects>
        <_>
          6 11 12 6 -1.</_>
        <_>
          10 15 4 6 3.</_></rects>
      <tilted>1</tilted></_>
    <_>
      <rects>
        <_>
          6 13 4 6 -1.</_>
        <_>
          7 13 2 6 2.</_></rects>
      <tilted>0</tilted></_>
    <_>
      <rects>
        <_>
          6 16 3 1 -1.</_>
        <_>
          7 16 1 1 3.</_></rects>
      <tilted>0</tilted></_>
    <_>
      <rects>
        <_>
          6 21 3 1 -1.</_>
        <_>
          7 21 1 1 3.</_></rects>
      <tilted>0</tilted></_>
    <_>
      <rects>
        <_>
          6 21 27 12 -1.</_>
        <_>
          6 24 27 6 2.</_></rects>
      <tilted>0</tilted></_>
    <_>
      <rects>
        <_>
          6 22 3 3 -1.</_>
        <_>
          7 22 1 3 3.</_></rects>
      <tilted>0</tilted></_>
    <_>
      <rects>
        <_>
          6 23 1 3 -1.</_>
        <_>
          6 24 1 1 3.</_></rects>
      <tilted>0</tilted></_>
    <_>
      <rects>
        <_>
          6 23 3 1 -1.</_>
        <_>
          7 24 1 1 3.</_></rects>
      <tilted>1</tilted></_>
    <_>
      <rects>
        <_>
          6 23 1 18 -1.</_>
        <_>
          6 29 1 6 3.</_></rects>
      <tilted>0</tilted></_>
    <_>
      <rects>
        <_>
          6 24 3 1 -1.</_>
        <_>
          7 24 1 1 3.</_></rects>
      <tilted>0</tilted></_>
    <_>
      <rects>
        <_>
          6 24 3 3 -1.</_>
        <_>
          7 25 1 1 9.</_></rects>
      <tilted>0</tilted></_>
    <_>
      <rects>
        <_>
          6 24 12 2 -1.</_>
        <_>
          10 24 4 2 3.</_></rects>
      <tilted>0</tilted></_>
    <_>
      <rects>
        <_>
          6 24 12 6 -1.</_>
        <_>
          10 26 4 2 9.</_></rects>
      <tilted>0</tilted></_>
    <_>
      <rects>
        <_>
          6 24 14 8 -1.</_>
        <_>
          6 24 7 4 2.</_>
        <_>
          13 28 7 4 2.</_></rects>
      <tilted>0</tilted></_>
    <_>
      <rects>
        <_>
          6 24 24 10 -1.</_>
        <_>
          18 24 12 10 2.</_></rects>
      <tilted>0</tilted></_>
    <_>
      <rects>
        <_>
          6 24 24 4 -1.</_>
        <_>
          6 25 24 2 2.</_></rects>
      <tilted>0</tilted></_>
    <_>
      <rects>
        <_>
          6 26 3 1 -1.</_>
        <_>
          7 26 1 1 3.</_></rects>
      <tilted>0</tilted></_>
    <_>
      <rects>
        <_>
          6 30 9 6 -1.</_>
        <_>
          4 32 9 2 3.</_></rects>
      <tilted>1</tilted></_>
    <_>
      <rects>
        <_>
          6 34 2 3 -1.</_>
        <_>
          6 35 2 1 3.</_></rects>
      <tilted>0</tilted></_>
    <_>
      <rects>
        <_>
          6 34 18 12 -1.</_>
        <_>
          6 38 18 4 3.</_></rects>
      <tilted>0</tilted></_>
    <_>
      <rects>
        <_>
          6 39 22 2 -1.</_>
        <_>
          6 40 22 1 2.</_></rects>
      <tilted>0</tilted></_>
    <_>
      <rects>
        <_>
          6 48 3 2 -1.</_>
        <_>
          6 49 3 1 2.</_></rects>
      <tilted>0</tilted></_>
    <_>
      <rects>
        <_>
          7 0 25 3 -1.</_>
        <_>
          7 1 25 1 3.</_></rects>
      <tilted>0</tilted></_>
    <_>
      <rects>
        <_>
          7 0 27 20 -1.</_>
        <_>
          7 10 27 10 2.</_></rects>
      <tilted>0</tilted></_>
    <_>
      <rects>
        <_>
          7 4 1 2 -1.</_>
        <_>
          7 4 1 1 2.</_></rects>
      <tilted>1</tilted></_>
    <_>
      <rects>
        <_>
          7 4 24 1 -1.</_>
        <_>
          15 4 8 1 3.</_></rects>
      <tilted>0</tilted></_>
    <_>
      <rects>
        <_>
          7 5 3 3 -1.</_>
        <_>
          8 6 1 1 9.</_></rects>
      <tilted>0</tilted></_>
    <_>
      <rects>
        <_>
          7 8 8 4 -1.</_>
        <_>
          7 8 4 4 2.</_></rects>
      <tilted>1</tilted></_>
    <_>
      <rects>
        <_>
          7 8 22 26 -1.</_>
        <_>
          7 8 11 13 2.</_>
        <_>
          18 21 11 13 2.</_></rects>
      <tilted>0</tilted></_>
    <_>
      <rects>
        <_>
          7 9 4 4 -1.</_>
        <_>
          6 10 4 2 2.</_></rects>
      <tilted>1</tilted></_>
    <_>
      <rects>
        <_>
          7 10 28 6 -1.</_>
        <_>
          7 10 28 3 2.</_></rects>
      <tilted>1</tilted></_>
    <_>
      <rects>
        <_>
          7 14 1 12 -1.</_>
        <_>
          7 18 1 4 3.</_></rects>
      <tilted>0</tilted></_>
    <_>
      <rects>
        <_>
          7 14 15 18 -1.</_>
        <_>
          7 20 15 6 3.</_></rects>
      <tilted>0</tilted></_>
    <_>
      <rects>
        <_>
          7 16 2 2 -1.</_>
        <_>
          7 16 1 1 2.</_>
        <_>
          8 17 1 1 2.</_></rects>
      <tilted>0</tilted></_>
    <_>
      <rects>
        <_>
          7 16 1 3 -1.</_>
        <_>
          6 17 1 1 3.</_></rects>
      <tilted>1</tilted></_>
    <_>
      <rects>
        <_>
          7 18 21 12 -1.</_>
        <_>
          7 21 21 6 2.</_></rects>
      <tilted>0</tilted></_>
    <_>
      <rects>
        <_>
          7 18 28 16 -1.</_>
        <_>
          7 26 28 8 2.</_></rects>
      <tilted>0</tilted></_>
    <_>
      <rects>
        <_>
          7 20 6 9 -1.</_>
        <_>
          9 20 2 9 3.</_></rects>
      <tilted>0</tilted></_>
    <_>
      <rects>
        <_>
          7 21 23 12 -1.</_>
        <_>
          7 27 23 6 2.</_></rects>
      <tilted>0</tilted></_>
    <_>
      <rects>
        <_>
          7 24 9 3 -1.</_>
        <_>
          10 25 3 1 9.</_></rects>
      <tilted>0</tilted></_>
    <_>
      <rects>
        <_>
          7 24 9 6 -1.</_>
        <_>
          10 26 3 2 9.</_></rects>
      <tilted>0</tilted></_>
    <_>
      <rects>
        <_>
          7 26 12 1 -1.</_>
        <_>
          11 26 4 1 3.</_></rects>
      <tilted>0</tilted></_>
    <_>
      <rects>
        <_>
          7 30 12 6 -1.</_>
        <_>
          7 33 12 3 2.</_></rects>
      <tilted>0</tilted></_>
    <_>
      <rects>
        <_>
          7 31 13 4 -1.</_>
        <_>
          7 31 13 2 2.</_></rects>
      <tilted>1</tilted></_>
    <_>
      <rects>
        <_>
          7 33 24 4 -1.</_>
        <_>
          7 33 12 2 2.</_>
        <_>
          19 35 12 2 2.</_></rects>
      <tilted>0</tilted></_>
    <_>
      <rects>
        <_>
          7 39 4 6 -1.</_>
        <_>
          8 40 2 6 2.</_></rects>
      <tilted>1</tilted></_>
    <_>
      <rects>
        <_>
          8 1 27 1 -1.</_>
        <_>
          17 1 9 1 3.</_></rects>
      <tilted>0</tilted></_>
    <_>
      <rects>
        <_>
          8 3 3 4 -1.</_>
        <_>
          9 4 1 4 3.</_></rects>
      <tilted>1</tilted></_>
    <_>
      <rects>
        <_>
          8 5 15 12 -1.</_>
        <_>
          8 9 15 4 3.</_></rects>
      <tilted>0</tilted></_>
    <_>
      <rects>
        <_>
          8 6 2 41 -1.</_>
        <_>
          9 6 1 41 2.</_></rects>
      <tilted>0</tilted></_>
    <_>
      <rects>
        <_>
          8 6 6 3 -1.</_>
        <_>
          8 6 3 3 2.</_></rects>
      <tilted>1</tilted></_>
    <_>
      <rects>
        <_>
          8 7 14 3 -1.</_>
        <_>
          8 8 14 1 3.</_></rects>
      <tilted>0</tilted></_>
    <_>
      <rects>
        <_>
          8 9 24 39 -1.</_>
        <_>
          16 22 8 13 9.</_></rects>
      <tilted>0</tilted></_>
    <_>
      <rects>
        <_>
          8 10 16 33 -1.</_>
        <_>
          16 10 8 33 2.</_></rects>
      <tilted>0</tilted></_>
    <_>
      <rects>
        <_>
          8 11 4 4 -1.</_>
        <_>
          8 13 4 2 2.</_></rects>
      <tilted>0</tilted></_>
    <_>
      <rects>
        <_>
          8 13 3 35 -1.</_>
        <_>
          9 13 1 35 3.</_></rects>
      <tilted>0</tilted></_>
    <_>
      <rects>
        <_>
          8 13 9 8 -1.</_>
        <_>
          11 16 3 8 3.</_></rects>
      <tilted>1</tilted></_>
    <_>
      <rects>
        <_>
          8 15 16 20 -1.</_>
        <_>
          16 15 8 20 2.</_></rects>
      <tilted>0</tilted></_>
    <_>
      <rects>
        <_>
          8 19 19 14 -1.</_>
        <_>
          8 26 19 7 2.</_></rects>
      <tilted>0</tilted></_>
    <_>
      <rects>
        <_>
          8 20 10 8 -1.</_>
        <_>
          8 20 5 4 2.</_>
        <_>
          13 24 5 4 2.</_></rects>
      <tilted>0</tilted></_>
    <_>
      <rects>
        <_>
          8 20 21 12 -1.</_>
        <_>
          8 26 21 6 2.</_></rects>
      <tilted>0</tilted></_>
    <_>
      <rects>
        <_>
          8 21 3 1 -1.</_>
        <_>
          9 21 1 1 3.</_></rects>
      <tilted>0</tilted></_>
    <_>
      <rects>
        <_>
          8 21 15 1 -1.</_>
        <_>
          13 26 5 1 3.</_></rects>
      <tilted>1</tilted></_>
    <_>
      <rects>
        <_>
          8 23 1 3 -1.</_>
        <_>
          8 24 1 1 3.</_></rects>
      <tilted>0</tilted></_>
    <_>
      <rects>
        <_>
          8 24 2 2 -1.</_>
        <_>
          8 24 1 1 2.</_>
        <_>
          9 25 1 1 2.</_></rects>
      <tilted>0</tilted></_>
    <_>
      <rects>
        <_>
          8 24 8 2 -1.</_>
        <_>
          10 24 4 2 2.</_></rects>
      <tilted>0</tilted></_>
    <_>
      <rects>
        <_>
          8 26 3 1 -1.</_>
        <_>
          9 26 1 1 3.</_></rects>
      <tilted>0</tilted></_>
    <_>
      <rects>
        <_>
          8 26 3 24 -1.</_>
        <_>
          9 26 1 24 3.</_></rects>
      <tilted>0</tilted></_>
    <_>
      <rects>
        <_>
          8 30 2 6 -1.</_>
        <_>
          8 32 2 2 3.</_></rects>
      <tilted>0</tilted></_>
    <_>
      <rects>
        <_>
          8 31 16 2 -1.</_>
        <_>
          8 31 8 1 2.</_>
        <_>
          16 32 8 1 2.</_></rects>
      <tilted>0</tilted></_>
    <_>
      <rects>
        <_>
          8 33 14 4 -1.</_>
        <_>
          8 33 7 2 2.</_>
        <_>
          15 35 7 2 2.</_></rects>
      <tilted>0</tilted></_>
    <_>
      <rects>
        <_>
          9 1 4 44 -1.</_>
        <_>
          11 1 2 44 2.</_></rects>
      <tilted>0</tilted></_>
    <_>
      <rects>
        <_>
          9 1 14 16 -1.</_>
        <_>
          9 5 14 8 2.</_></rects>
      <tilted>0</tilted></_>
    <_>
      <rects>
        <_>
          9 7 24 16 -1.</_>
        <_>
          9 15 24 8 2.</_></rects>
      <tilted>0</tilted></_>
    <_>
      <rects>
        <_>
          9 11 4 8 -1.</_>
        <_>
          9 11 2 8 2.</_></rects>
      <tilted>1</tilted></_>
    <_>
      <rects>
        <_>
          9 13 6 4 -1.</_>
        <_>
          11 15 2 4 3.</_></rects>
      <tilted>1</tilted></_>
    <_>
      <rects>
        <_>
          9 14 6 5 -1.</_>
        <_>
          11 16 2 5 3.</_></rects>
      <tilted>1</tilted></_>
    <_>
      <rects>
        <_>
          9 16 3 5 -1.</_>
        <_>
          10 16 1 5 3.</_></rects>
      <tilted>0</tilted></_>
    <_>
      <rects>
        <_>
          9 16 10 4 -1.</_>
        <_>
          9 16 5 2 2.</_>
        <_>
          14 18 5 2 2.</_></rects>
      <tilted>0</tilted></_>
    <_>
      <rects>
        <_>
          9 16 14 2 -1.</_>
        <_>
          9 16 7 1 2.</_>
        <_>
          16 17 7 1 2.</_></rects>
      <tilted>0</tilted></_>
    <_>
      <rects>
        <_>
          9 17 4 8 -1.</_>
        <_>
          9 17 2 8 2.</_></rects>
      <tilted>1</tilted></_>
    <_>
      <rects>
        <_>
          9 17 12 4 -1.</_>
        <_>
          9 17 6 2 2.</_>
        <_>
          15 19 6 2 2.</_></rects>
      <tilted>0</tilted></_>
    <_>
      <rects>
        <_>
          9 19 2 3 -1.</_>
        <_>
          8 20 2 1 3.</_></rects>
      <tilted>1</tilted></_>
    <_>
      <rects>
        <_>
          9 20 20 11 -1.</_>
        <_>
          19 20 10 11 2.</_></rects>
      <tilted>0</tilted></_>
    <_>
      <rects>
        <_>
          9 21 9 6 -1.</_>
        <_>
          12 23 3 2 9.</_></rects>
      <tilted>0</tilted></_>
    <_>
      <rects>
        <_>
          9 21 8 16 -1.</_>
        <_>
          13 21 4 16 2.</_></rects>
      <tilted>0</tilted></_>
    <_>
      <rects>
        <_>
          9 22 4 6 -1.</_>
        <_>
          7 24 4 2 3.</_></rects>
      <tilted>1</tilted></_>
    <_>
      <rects>
        <_>
          9 23 10 12 -1.</_>
        <_>
          9 23 5 6 2.</_>
        <_>
          14 29 5 6 2.</_></rects>
      <tilted>0</tilted></_>
    <_>
      <rects>
        <_>
          9 24 9 9 -1.</_>
        <_>
          12 27 3 3 9.</_></rects>
      <tilted>0</tilted></_>
    <_>
      <rects>
        <_>
          9 25 24 20 -1.</_>
        <_>
          15 25 12 20 2.</_></rects>
      <tilted>0</tilted></_>
    <_>
      <rects>
        <_>
          9 25 9 8 -1.</_>
        <_>
          7 27 9 4 2.</_></rects>
      <tilted>1</tilted></_>
    <_>
      <rects>
        <_>
          9 26 9 3 -1.</_>
        <_>
          12 27 3 1 9.</_></rects>
      <tilted>0</tilted></_>
    <_>
      <rects>
        <_>
          9 26 7 4 -1.</_>
        <_>
          8 27 7 2 2.</_></rects>
      <tilted>1</tilted></_>
    <_>
      <rects>
        <_>
          9 28 14 8 -1.</_>
        <_>
          9 28 14 4 2.</_></rects>
      <tilted>1</tilted></_>
    <_>
      <rects>
        <_>
          9 29 12 3 -1.</_>
        <_>
          13 30 4 1 9.</_></rects>
      <tilted>0</tilted></_>
    <_>
      <rects>
        <_>
          9 31 7 8 -1.</_>
        <_>
          7 33 7 4 2.</_></rects>
      <tilted>1</tilted></_>
    <_>
      <rects>
        <_>
          9 34 2 12 -1.</_>
        <_>
          9 37 2 6 2.</_></rects>
      <tilted>0</tilted></_>
    <_>
      <rects>
        <_>
          9 35 14 4 -1.</_>
        <_>
          9 35 7 2 2.</_>
        <_>
          16 37 7 2 2.</_></rects>
      <tilted>0</tilted></_>
    <_>
      <rects>
        <_>
          10 0 6 1 -1.</_>
        <_>
          12 0 2 1 3.</_></rects>
      <tilted>0</tilted></_>
    <_>
      <rects>
        <_>
          10 0 8 12 -1.</_>
        <_>
          12 0 4 12 2.</_></rects>
      <tilted>0</tilted></_>
    <_>
      <rects>
        <_>
          10 0 10 10 -1.</_>
        <_>
          10 0 5 10 2.</_></rects>
      <tilted>1</tilted></_>
    <_>
      <rects>
        <_>
          10 1 2 22 -1.</_>
        <_>
          10 1 1 11 2.</_>
        <_>
          11 12 1 11 2.</_></rects>
      <tilted>0</tilted></_>
    <_>
      <rects>
        <_>
          10 1 5 15 -1.</_>
        <_>
          10 6 5 5 3.</_></rects>
      <tilted>0</tilted></_>
    <_>
      <rects>
        <_>
          10 6 6 10 -1.</_>
        <_>
          10 6 3 10 2.</_></rects>
      <tilted>1</tilted></_>
    <_>
      <rects>
        <_>
          10 12 11 6 -1.</_>
        <_>
          10 14 11 2 3.</_></rects>
      <tilted>0</tilted></_>
    <_>
      <rects>
        <_>
          10 14 4 24 -1.</_>
        <_>
          11 14 2 24 2.</_></rects>
      <tilted>0</tilted></_>
    <_>
      <rects>
        <_>
          10 14 14 9 -1.</_>
        <_>
          10 17 14 3 3.</_></rects>
      <tilted>0</tilted></_>
    <_>
      <rects>
        <_>
          10 16 3 1 -1.</_>
        <_>
          11 16 1 1 3.</_></rects>
      <tilted>0</tilted></_>
    <_>
      <rects>
        <_>
          10 17 25 16 -1.</_>
        <_>
          10 21 25 8 2.</_></rects>
      <tilted>0</tilted></_>
    <_>
      <rects>
        <_>
          10 19 12 14 -1.</_>
        <_>
          10 26 12 7 2.</_></rects>
      <tilted>0</tilted></_>
    <_>
      <rects>
        <_>
          10 23 20 9 -1.</_>
        <_>
          20 23 10 9 2.</_></rects>
      <tilted>0</tilted></_>
    <_>
      <rects>
        <_>
          10 23 24 10 -1.</_>
        <_>
          10 28 24 5 2.</_></rects>
      <tilted>0</tilted></_>
    <_>
      <rects>
        <_>
          10 24 6 3 -1.</_>
        <_>
          12 25 2 1 9.</_></rects>
      <tilted>0</tilted></_>
    <_>
      <rects>
        <_>
          10 24 24 7 -1.</_>
        <_>
          16 24 12 7 2.</_></rects>
      <tilted>0</tilted></_>
    <_>
      <rects>
        <_>
          10 25 12 1 -1.</_>
        <_>
          14 25 4 1 3.</_></rects>
      <tilted>0</tilted></_>
    <_>
      <rects>
        <_>
          10 25 6 3 -1.</_>
        <_>
          9 26 6 1 3.</_></rects>
      <tilted>1</tilted></_>
    <_>
      <rects>
        <_>
          10 26 9 3 -1.</_>
        <_>
          13 26 3 3 3.</_></rects>
      <tilted>0</tilted></_>
    <_>
      <rects>
        <_>
          10 26 8 6 -1.</_>
        <_>
          8 28 8 2 3.</_></rects>
      <tilted>1</tilted></_>
    <_>
      <rects>
        <_>
          10 27 12 3 -1.</_>
        <_>
          14 28 4 1 9.</_></rects>
      <tilted>0</tilted></_>
    <_>
      <rects>
        <_>
          10 27 20 19 -1.</_>
        <_>
          15 27 10 19 2.</_></rects>
      <tilted>0</tilted></_>
    <_>
      <rects>
        <_>
          10 28 3 1 -1.</_>
        <_>
          11 28 1 1 3.</_></rects>
      <tilted>0</tilted></_>
    <_>
      <rects>
        <_>
          10 28 12 10 -1.</_>
        <_>
          10 28 6 5 2.</_>
        <_>
          16 33 6 5 2.</_></rects>
      <tilted>0</tilted></_>
    <_>
      <rects>
        <_>
          10 30 7 9 -1.</_>
        <_>
          7 33 7 3 3.</_></rects>
      <tilted>1</tilted></_>
    <_>
      <rects>
        <_>
          10 31 6 4 -1.</_>
        <_>
          12 33 2 4 3.</_></rects>
      <tilted>1</tilted></_>
    <_>
      <rects>
        <_>
          10 34 19 16 -1.</_>
        <_>
          10 38 19 8 2.</_></rects>
      <tilted>0</tilted></_>
    <_>
      <rects>
        <_>
          10 38 18 4 -1.</_>
        <_>
          10 38 9 2 2.</_>
        <_>
          19 40 9 2 2.</_></rects>
      <tilted>0</tilted></_>
    <_>
      <rects>
        <_>
          10 40 18 2 -1.</_>
        <_>
          10 40 9 1 2.</_>
        <_>
          19 41 9 1 2.</_></rects>
      <tilted>0</tilted></_>
    <_>
      <rects>
        <_>
          10 43 12 5 -1.</_>
        <_>
          13 43 6 5 2.</_></rects>
      <tilted>0</tilted></_>
    <_>
      <rects>
        <_>
          11 0 24 1 -1.</_>
        <_>
          17 0 12 1 2.</_></rects>
      <tilted>0</tilted></_>
    <_>
      <rects>
        <_>
          11 1 3 7 -1.</_>
        <_>
          12 2 1 7 3.</_></rects>
      <tilted>1</tilted></_>
    <_>
      <rects>
        <_>
          11 3 3 1 -1.</_>
        <_>
          12 3 1 1 3.</_></rects>
      <tilted>0</tilted></_>
    <_>
      <rects>
        <_>
          11 3 11 9 -1.</_>
        <_>
          11 6 11 3 3.</_></rects>
      <tilted>0</tilted></_>
    <_>
      <rects>
        <_>
          11 6 1 2 -1.</_>
        <_>
          11 7 1 1 2.</_></rects>
      <tilted>0</tilted></_>
    <_>
      <rects>
        <_>
          11 9 18 10 -1.</_>
        <_>
          11 9 18 5 2.</_></rects>
      <tilted>1</tilted></_>
    <_>
      <rects>
        <_>
          11 10 4 3 -1.</_>
        <_>
          12 11 2 3 2.</_></rects>
      <tilted>1</tilted></_>
    <_>
      <rects>
        <_>
          11 11 22 2 -1.</_>
        <_>
          11 11 11 1 2.</_>
        <_>
          22 12 11 1 2.</_></rects>
      <tilted>0</tilted></_>
    <_>
      <rects>
        <_>
          11 11 14 8 -1.</_>
        <_>
          11 13 14 4 2.</_></rects>
      <tilted>0</tilted></_>
    <_>
      <rects>
        <_>
          11 13 6 29 -1.</_>
        <_>
          14 13 3 29 2.</_></rects>
      <tilted>0</tilted></_>
    <_>
      <rects>
        <_>
          11 13 24 5 -1.</_>
        <_>
          11 13 12 5 2.</_></rects>
      <tilted>1</tilted></_>
    <_>
      <rects>
        <_>
          11 14 12 4 -1.</_>
        <_>
          11 14 6 2 2.</_>
        <_>
          17 16 6 2 2.</_></rects>
      <tilted>0</tilted></_>
    <_>
      <rects>
        <_>
          11 15 3 3 -1.</_>
        <_>
          12 15 1 3 3.</_></rects>
      <tilted>0</tilted></_>
    <_>
      <rects>
        <_>
          11 15 14 6 -1.</_>
        <_>
          11 15 14 3 2.</_></rects>
      <tilted>1</tilted></_>
    <_>
      <rects>
        <_>
          11 18 16 26 -1.</_>
        <_>
          19 18 8 26 2.</_></rects>
      <tilted>0</tilted></_>
    <_>
      <rects>
        <_>
          11 20 3 14 -1.</_>
        <_>
          12 20 1 14 3.</_></rects>
      <tilted>0</tilted></_>
    <_>
      <rects>
        <_>
          11 21 12 9 -1.</_>
        <_>
          15 24 4 3 9.</_></rects>
      <tilted>0</tilted></_>
    <_>
      <rects>
        <_>
          11 21 23 10 -1.</_>
        <_>
          11 26 23 5 2.</_></rects>
      <tilted>0</tilted></_>
    <_>
      <rects>
        <_>
          11 22 6 4 -1.</_>
        <_>
          11 22 3 2 2.</_>
        <_>
          14 24 3 2 2.</_></rects>
      <tilted>0</tilted></_>
    <_>
      <rects>
        <_>
          11 23 9 6 -1.</_>
        <_>
          14 25 3 2 9.</_></rects>
      <tilted>0</tilted></_>
    <_>
      <rects>
        <_>
          11 23 9 6 -1.</_>
        <_>
          14 23 3 6 3.</_></rects>
      <tilted>0</tilted></_>
    <_>
      <rects>
        <_>
          11 24 2 2 -1.</_>
        <_>
          11 24 1 1 2.</_>
        <_>
          12 25 1 1 2.</_></rects>
      <tilted>0</tilted></_>
    <_>
      <rects>
        <_>
          11 25 9 1 -1.</_>
        <_>
          14 25 3 1 3.</_></rects>
      <tilted>0</tilted></_>
    <_>
      <rects>
        <_>
          11 26 9 1 -1.</_>
        <_>
          14 26 3 1 3.</_></rects>
      <tilted>0</tilted></_>
    <_>
      <rects>
        <_>
          11 26 12 2 -1.</_>
        <_>
          15 26 4 2 3.</_></rects>
      <tilted>0</tilted></_>
    <_>
      <rects>
        <_>
          11 28 2 2 -1.</_>
        <_>
          11 28 1 1 2.</_>
        <_>
          12 29 1 1 2.</_></rects>
      <tilted>0</tilted></_>
    <_>
      <rects>
        <_>
          11 28 9 3 -1.</_>
        <_>
          14 29 3 1 9.</_></rects>
      <tilted>0</tilted></_>
    <_>
      <rects>
        <_>
          11 28 22 13 -1.</_>
        <_>
          22 28 11 13 2.</_></rects>
      <tilted>0</tilted></_>
    <_>
      <rects>
        <_>
          11 30 8 9 -1.</_>
        <_>
          8 33 8 3 3.</_></rects>
      <tilted>1</tilted></_>
    <_>
      <rects>
        <_>
          11 33 17 16 -1.</_>
        <_>
          11 37 17 8 2.</_></rects>
      <tilted>0</tilted></_>
    <_>
      <rects>
        <_>
          11 34 3 3 -1.</_>
        <_>
          12 35 1 1 9.</_></rects>
      <tilted>0</tilted></_>
    <_>
      <rects>
        <_>
          11 34 6 4 -1.</_>
        <_>
          11 35 6 2 2.</_></rects>
      <tilted>0</tilted></_>
    <_>
      <rects>
        <_>
          11 35 17 12 -1.</_>
        <_>
          11 39 17 4 3.</_></rects>
      <tilted>0</tilted></_>
    <_>
      <rects>
        <_>
          11 37 15 6 -1.</_>
        <_>
          16 37 5 6 3.</_></rects>
      <tilted>0</tilted></_>
    <_>
      <rects>
        <_>
          11 38 22 2 -1.</_>
        <_>
          11 38 11 1 2.</_>
        <_>
          22 39 11 1 2.</_></rects>
      <tilted>0</tilted></_>
    <_>
      <rects>
        <_>
          12 1 14 4 -1.</_>
        <_>
          12 2 14 2 2.</_></rects>
      <tilted>0</tilted></_>
    <_>
      <rects>
        <_>
          12 2 10 12 -1.</_>
        <_>
          12 5 10 6 2.</_></rects>
      <tilted>0</tilted></_>
    <_>
      <rects>
        <_>
          12 9 1 9 -1.</_>
        <_>
          12 12 1 3 3.</_></rects>
      <tilted>0</tilted></_>
    <_>
      <rects>
        <_>
          12 9 12 6 -1.</_>
        <_>
          16 9 4 6 3.</_></rects>
      <tilted>0</tilted></_>
    <_>
      <rects>
        <_>
          12 10 2 9 -1.</_>
        <_>
          9 13 2 3 3.</_></rects>
      <tilted>1</tilted></_>
    <_>
      <rects>
        <_>
          12 10 15 4 -1.</_>
        <_>
          17 10 5 4 3.</_></rects>
      <tilted>0</tilted></_>
    <_>
      <rects>
        <_>
          12 15 6 8 -1.</_>
        <_>
          12 15 6 4 2.</_></rects>
      <tilted>1</tilted></_>
    <_>
      <rects>
        <_>
          12 15 15 20 -1.</_>
        <_>
          12 25 15 10 2.</_></rects>
      <tilted>0</tilted></_>
    <_>
      <rects>
        <_>
          12 18 9 6 -1.</_>
        <_>
          15 20 3 2 9.</_></rects>
      <tilted>0</tilted></_>
    <_>
      <rects>
        <_>
          12 19 7 6 -1.</_>
        <_>
          10 21 7 2 3.</_></rects>
      <tilted>1</tilted></_>
    <_>
      <rects>
        <_>
          12 20 22 30 -1.</_>
        <_>
          12 35 22 15 2.</_></rects>
      <tilted>0</tilted></_>
    <_>
      <rects>
        <_>
          12 21 6 4 -1.</_>
        <_>
          15 21 3 4 2.</_></rects>
      <tilted>0</tilted></_>
    <_>
      <rects>
        <_>
          12 23 3 2 -1.</_>
        <_>
          13 23 1 2 3.</_></rects>
      <tilted>0</tilted></_>
    <_>
      <rects>
        <_>
          12 23 8 6 -1.</_>
        <_>
          12 23 4 3 2.</_>
        <_>
          16 26 4 3 2.</_></rects>
      <tilted>0</tilted></_>
    <_>
      <rects>
        <_>
          12 24 4 6 -1.</_>
        <_>
          12 24 2 3 2.</_>
        <_>
          14 27 2 3 2.</_></rects>
      <tilted>0</tilted></_>
    <_>
      <rects>
        <_>
          12 24 9 2 -1.</_>
        <_>
          15 24 3 2 3.</_></rects>
      <tilted>0</tilted></_>
    <_>
      <rects>
        <_>
          12 24 9 3 -1.</_>
        <_>
          15 24 3 3 3.</_></rects>
      <tilted>0</tilted></_>
    <_>
      <rects>
        <_>
          12 25 1 4 -1.</_>
        <_>
          12 26 1 2 2.</_></rects>
      <tilted>0</tilted></_>
    <_>
      <rects>
        <_>
          12 25 8 2 -1.</_>
        <_>
          14 27 4 2 2.</_></rects>
      <tilted>1</tilted></_>
    <_>
      <rects>
        <_>
          12 26 6 3 -1.</_>
        <_>
          15 26 3 3 2.</_></rects>
      <tilted>0</tilted></_>
    <_>
      <rects>
        <_>
          12 26 5 6 -1.</_>
        <_>
          10 28 5 2 3.</_></rects>
      <tilted>1</tilted></_>
    <_>
      <rects>
        <_>
          12 26 12 12 -1.</_>
        <_>
          12 26 12 6 2.</_></rects>
      <tilted>1</tilted></_>
    <_>
      <rects>
        <_>
          12 28 4 6 -1.</_>
        <_>
          12 30 4 2 3.</_></rects>
      <tilted>0</tilted></_>
    <_>
      <rects>
        <_>
          12 29 3 2 -1.</_>
        <_>
          13 29 1 2 3.</_></rects>
      <tilted>0</tilted></_>
    <_>
      <rects>
        <_>
          12 29 3 6 -1.</_>
        <_>
          13 29 1 6 3.</_></rects>
      <tilted>0</tilted></_>
    <_>
      <rects>
        <_>
          12 29 3 6 -1.</_>
        <_>
          10 31 3 2 3.</_></rects>
      <tilted>1</tilted></_>
    <_>
      <rects>
        <_>
          12 32 1 6 -1.</_>
        <_>
          12 32 1 3 2.</_></rects>
      <tilted>1</tilted></_>
    <_>
      <rects>
        <_>
          12 32 10 6 -1.</_>
        <_>
          12 32 5 3 2.</_>
        <_>
          17 35 5 3 2.</_></rects>
      <tilted>0</tilted></_>
    <_>
      <rects>
        <_>
          12 32 18 10 -1.</_>
        <_>
          18 32 6 10 3.</_></rects>
      <tilted>0</tilted></_>
    <_>
      <rects>
        <_>
          12 34 10 2 -1.</_>
        <_>
          12 34 5 1 2.</_>
        <_>
          17 35 5 1 2.</_></rects>
      <tilted>0</tilted></_>
    <_>
      <rects>
        <_>
          12 37 9 9 -1.</_>
        <_>
          12 40 9 3 3.</_></rects>
      <tilted>0</tilted></_>
    <_>
      <rects>
        <_>
          12 40 3 4 -1.</_>
        <_>
          13 41 1 4 3.</_></rects>
      <tilted>1</tilted></_>
    <_>
      <rects>
        <_>
          13 0 20 1 -1.</_>
        <_>
          18 0 10 1 2.</_></rects>
      <tilted>0</tilted></_>
    <_>
      <rects>
        <_>
          13 5 2 13 -1.</_>
        <_>
          13 5 1 13 2.</_></rects>
      <tilted>1</tilted></_>
    <_>
      <rects>
        <_>
          13 5 6 5 -1.</_>
        <_>
          16 5 3 5 2.</_></rects>
      <tilted>0</tilted></_>
    <_>
      <rects>
        <_>
          13 7 12 8 -1.</_>
        <_>
          13 9 12 4 2.</_></rects>
      <tilted>0</tilted></_>
    <_>
      <rects>
        <_>
          13 12 8 6 -1.</_>
        <_>
          13 12 4 3 2.</_>
        <_>
          17 15 4 3 2.</_></rects>
      <tilted>0</tilted></_>
    <_>
      <rects>
        <_>
          13 14 12 21 -1.</_>
        <_>
          17 21 4 7 9.</_></rects>
      <tilted>0</tilted></_>
    <_>
      <rects>
        <_>
          13 15 4 12 -1.</_>
        <_>
          13 15 2 6 2.</_>
        <_>
          15 21 2 6 2.</_></rects>
      <tilted>0</tilted></_>
    <_>
      <rects>
        <_>
          13 16 22 12 -1.</_>
        <_>
          13 16 11 12 2.</_></rects>
      <tilted>1</tilted></_>
    <_>
      <rects>
        <_>
          13 19 16 8 -1.</_>
        <_>
          13 19 8 4 2.</_>
        <_>
          21 23 8 4 2.</_></rects>
      <tilted>0</tilted></_>
    <_>
      <rects>
        <_>
          13 20 15 4 -1.</_>
        <_>
          13 21 15 2 2.</_></rects>
      <tilted>0</tilted></_>
    <_>
      <rects>
        <_>
          13 21 6 8 -1.</_>
        <_>
          13 21 3 4 2.</_>
        <_>
          16 25 3 4 2.</_></rects>
      <tilted>0</tilted></_>
    <_>
      <rects>
        <_>
          13 21 9 8 -1.</_>
        <_>
          13 25 9 4 2.</_></rects>
      <tilted>0</tilted></_>
    <_>
      <rects>
        <_>
          13 22 3 4 -1.</_>
        <_>
          13 24 3 2 2.</_></rects>
      <tilted>0</tilted></_>
    <_>
      <rects>
        <_>
          13 22 9 6 -1.</_>
        <_>
          16 24 3 2 9.</_></rects>
      <tilted>0</tilted></_>
    <_>
      <rects>
        <_>
          13 22 17 8 -1.</_>
        <_>
          13 26 17 4 2.</_></rects>
      <tilted>0</tilted></_>
    <_>
      <rects>
        <_>
          13 24 1 3 -1.</_>
        <_>
          13 25 1 1 3.</_></rects>
      <tilted>0</tilted></_>
    <_>
      <rects>
        <_>
          13 24 4 1 -1.</_>
        <_>
          15 24 2 1 2.</_></rects>
      <tilted>0</tilted></_>
    <_>
      <rects>
        <_>
          13 24 6 4 -1.</_>
        <_>
          15 24 2 4 3.</_></rects>
      <tilted>0</tilted></_>
    <_>
      <rects>
        <_>
          13 25 9 3 -1.</_>
        <_>
          16 26 3 1 9.</_></rects>
      <tilted>0</tilted></_>
    <_>
      <rects>
        <_>
          13 25 6 4 -1.</_>
        <_>
          12 26 6 2 2.</_></rects>
      <tilted>1</tilted></_>
    <_>
      <rects>
        <_>
          13 26 14 4 -1.</_>
        <_>
          12 27 14 2 2.</_></rects>
      <tilted>1</tilted></_>
    <_>
      <rects>
        <_>
          13 27 3 13 -1.</_>
        <_>
          14 27 1 13 3.</_></rects>
      <tilted>0</tilted></_>
    <_>
      <rects>
        <_>
          13 33 8 4 -1.</_>
        <_>
          13 33 4 2 2.</_>
        <_>
          17 35 4 2 2.</_></rects>
      <tilted>0</tilted></_>
    <_>
      <rects>
        <_>
          13 36 2 4 -1.</_>
        <_>
          13 38 2 2 2.</_></rects>
      <tilted>0</tilted></_>
    <_>
      <rects>
        <_>
          13 36 15 13 -1.</_>
        <_>
          18 36 5 13 3.</_></rects>
      <tilted>0</tilted></_>
    <_>
      <rects>
        <_>
          13 39 12 10 -1.</_>
        <_>
          16 39 6 10 2.</_></rects>
      <tilted>0</tilted></_>
    <_>
      <rects>
        <_>
          14 0 9 4 -1.</_>
        <_>
          17 0 3 4 3.</_></rects>
      <tilted>0</tilted></_>
    <_>
      <rects>
        <_>
          14 1 1 3 -1.</_>
        <_>
          14 2 1 1 3.</_></rects>
      <tilted>0</tilted></_>
    <_>
      <rects>
        <_>
          14 1 18 48 -1.</_>
        <_>
          14 13 18 24 2.</_></rects>
      <tilted>0</tilted></_>
    <_>
      <rects>
        <_>
          14 4 6 2 -1.</_>
        <_>
          17 4 3 2 2.</_></rects>
      <tilted>0</tilted></_>
    <_>
      <rects>
        <_>
          14 6 9 10 -1.</_>
        <_>
          14 11 9 5 2.</_></rects>
      <tilted>0</tilted></_>
    <_>
      <rects>
        <_>
          14 7 2 10 -1.</_>
        <_>
          14 7 1 10 2.</_></rects>
      <tilted>1</tilted></_>
    <_>
      <rects>
        <_>
          14 8 2 9 -1.</_>
        <_>
          15 8 1 9 2.</_></rects>
      <tilted>0</tilted></_>
    <_>
      <rects>
        <_>
          14 11 4 6 -1.</_>
        <_>
          15 11 2 6 2.</_></rects>
      <tilted>0</tilted></_>
    <_>
      <rects>
        <_>
          14 13 20 6 -1.</_>
        <_>
          14 13 10 6 2.</_></rects>
      <tilted>1</tilted></_>
    <_>
      <rects>
        <_>
          14 17 10 3 -1.</_>
        <_>
          14 17 5 3 2.</_></rects>
      <tilted>1</tilted></_>
    <_>
      <rects>
        <_>
          14 19 20 8 -1.</_>
        <_>
          14 21 20 4 2.</_></rects>
      <tilted>0</tilted></_>
    <_>
      <rects>
        <_>
          14 21 2 12 -1.</_>
        <_>
          14 24 2 6 2.</_></rects>
      <tilted>0</tilted></_>
    <_>
      <rects>
        <_>
          14 21 9 5 -1.</_>
        <_>
          17 21 3 5 3.</_></rects>
      <tilted>0</tilted></_>
    <_>
      <rects>
        <_>
          14 21 10 6 -1.</_>
        <_>
          12 23 10 2 3.</_></rects>
      <tilted>1</tilted></_>
    <_>
      <rects>
        <_>
          14 22 4 4 -1.</_>
        <_>
          14 22 2 2 2.</_>
        <_>
          16 24 2 2 2.</_></rects>
      <tilted>0</tilted></_>
    <_>
      <rects>
        <_>
          14 22 3 6 -1.</_>
        <_>
          14 25 3 3 2.</_></rects>
      <tilted>0</tilted></_>
    <_>
      <rects>
        <_>
          14 22 14 2 -1.</_>
        <_>
          14 22 7 2 2.</_></rects>
      <tilted>1</tilted></_>
    <_>
      <rects>
        <_>
          14 22 8 3 -1.</_>
        <_>
          14 23 8 1 3.</_></rects>
      <tilted>0</tilted></_>
    <_>
      <rects>
        <_>
          14 23 4 4 -1.</_>
        <_>
          14 23 2 2 2.</_>
        <_>
          16 25 2 2 2.</_></rects>
      <tilted>0</tilted></_>
    <_>
      <rects>
        <_>
          14 23 9 1 -1.</_>
        <_>
          17 23 3 1 3.</_></rects>
      <tilted>0</tilted></_>
    <_>
      <rects>
        <_>
          14 24 8 2 -1.</_>
        <_>
          16 24 4 2 2.</_></rects>
      <tilted>0</tilted></_>
    <_>
      <rects>
        <_>
          14 24 4 3 -1.</_>
        <_>
          16 24 2 3 2.</_></rects>
      <tilted>0</tilted></_>
    <_>
      <rects>
        <_>
          14 27 3 20 -1.</_>
        <_>
          15 27 1 20 3.</_></rects>
      <tilted>0</tilted></_>
    <_>
      <rects>
        <_>
          14 36 4 3 -1.</_>
        <_>
          14 37 4 1 3.</_></rects>
      <tilted>0</tilted></_>
    <_>
      <rects>
        <_>
          14 37 15 2 -1.</_>
        <_>
          14 38 15 1 2.</_></rects>
      <tilted>0</tilted></_>
    <_>
      <rects>
        <_>
          14 37 21 9 -1.</_>
        <_>
          14 40 21 3 3.</_></rects>
      <tilted>0</tilted></_>
    <_>
      <rects>
        <_>
          14 46 1 3 -1.</_>
        <_>
          13 47 1 1 3.</_></rects>
      <tilted>1</tilted></_>
    <_>
      <rects>
        <_>
          14 46 13 3 -1.</_>
        <_>
          14 47 13 1 3.</_></rects>
      <tilted>0</tilted></_>
    <_>
      <rects>
        <_>
          15 0 20 1 -1.</_>
        <_>
          20 0 10 1 2.</_></rects>
      <tilted>0</tilted></_>
    <_>
      <rects>
        <_>
          15 1 16 5 -1.</_>
        <_>
          19 1 8 5 2.</_></rects>
      <tilted>0</tilted></_>
    <_>
      <rects>
        <_>
          15 13 20 10 -1.</_>
        <_>
          15 13 10 10 2.</_></rects>
      <tilted>1</tilted></_>
    <_>
      <rects>
        <_>
          15 14 10 2 -1.</_>
        <_>
          15 15 10 1 2.</_></rects>
      <tilted>0</tilted></_>
    <_>
      <rects>
        <_>
          15 15 6 6 -1.</_>
        <_>
          17 17 2 6 3.</_></rects>
      <tilted>1</tilted></_>
    <_>
      <rects>
        <_>
          15 16 19 16 -1.</_>
        <_>
          15 24 19 8 2.</_></rects>
      <tilted>0</tilted></_>
    <_>
      <rects>
        <_>
          15 16 20 18 -1.</_>
        <_>
          15 22 20 6 3.</_></rects>
      <tilted>0</tilted></_>
    <_>
      <rects>
        <_>
          15 20 9 4 -1.</_>
        <_>
          14 21 9 2 2.</_></rects>
      <tilted>1</tilted></_>
    <_>
      <rects>
        <_>
          15 21 4 6 -1.</_>
        <_>
          15 21 2 3 2.</_>
        <_>
          17 24 2 3 2.</_></rects>
      <tilted>0</tilted></_>
    <_>
      <rects>
        <_>
          15 22 2 3 -1.</_>
        <_>
          15 22 1 3 2.</_></rects>
      <tilted>1</tilted></_>
    <_>
      <rects>
        <_>
          15 24 2 6 -1.</_>
        <_>
          15 24 1 3 2.</_>
        <_>
          16 27 1 3 2.</_></rects>
      <tilted>0</tilted></_>
    <_>
      <rects>
        <_>
          15 24 6 22 -1.</_>
        <_>
          17 24 2 22 3.</_></rects>
      <tilted>0</tilted></_>
    <_>
      <rects>
        <_>
          15 28 8 2 -1.</_>
        <_>
          15 28 4 1 2.</_>
        <_>
          19 29 4 1 2.</_></rects>
      <tilted>0</tilted></_>
    <_>
      <rects>
        <_>
          15 29 18 1 -1.</_>
        <_>
          21 35 6 1 3.</_></rects>
      <tilted>1</tilted></_>
    <_>
      <rects>
        <_>
          15 30 3 8 -1.</_>
        <_>
          16 30 1 8 3.</_></rects>
      <tilted>0</tilted></_>
    <_>
      <rects>
        <_>
          15 30 5 3 -1.</_>
        <_>
          15 31 5 1 3.</_></rects>
      <tilted>0</tilted></_>
    <_>
      <rects>
        <_>
          15 32 3 6 -1.</_>
        <_>
          15 34 3 2 3.</_></rects>
      <tilted>0</tilted></_>
    <_>
      <rects>
        <_>
          15 45 4 5 -1.</_>
        <_>
          17 45 2 5 2.</_></rects>
      <tilted>0</tilted></_>
    <_>
      <rects>
        <_>
          15 47 10 2 -1.</_>
        <_>
          15 48 10 1 2.</_></rects>
      <tilted>0</tilted></_>
    <_>
      <rects>
        <_>
          16 0 9 1 -1.</_>
        <_>
          19 0 3 1 3.</_></rects>
      <tilted>0</tilted></_>
    <_>
      <rects>
        <_>
          16 0 12 1 -1.</_>
        <_>
          22 0 6 1 2.</_></rects>
      <tilted>0</tilted></_>
    <_>
      <rects>
        <_>
          16 0 18 45 -1.</_>
        <_>
          22 15 6 15 9.</_></rects>
      <tilted>0</tilted></_>
    <_>
      <rects>
        <_>
          16 1 4 15 -1.</_>
        <_>
          17 2 2 15 2.</_></rects>
      <tilted>1</tilted></_>
    <_>
      <rects>
        <_>
          16 6 3 4 -1.</_>
        <_>
          15 7 3 2 2.</_></rects>
      <tilted>1</tilted></_>
    <_>
      <rects>
        <_>
          16 7 8 38 -1.</_>
        <_>
          16 26 8 19 2.</_></rects>
      <tilted>0</tilted></_>
    <_>
      <rects>
        <_>
          16 10 16 14 -1.</_>
        <_>
          16 10 16 7 2.</_></rects>
      <tilted>1</tilted></_>
    <_>
      <rects>
        <_>
          16 17 3 3 -1.</_>
        <_>
          17 17 1 3 3.</_></rects>
      <tilted>0</tilted></_>
    <_>
      <rects>
        <_>
          16 19 8 5 -1.</_>
        <_>
          18 19 4 5 2.</_></rects>
      <tilted>0</tilted></_>
    <_>
      <rects>
        <_>
          16 19 9 6 -1.</_>
        <_>
          14 21 9 2 3.</_></rects>
      <tilted>1</tilted></_>
    <_>
      <rects>
        <_>
          16 21 9 9 -1.</_>
        <_>
          19 24 3 3 9.</_></rects>
      <tilted>0</tilted></_>
    <_>
      <rects>
        <_>
          16 21 12 8 -1.</_>
        <_>
          16 25 12 4 2.</_></rects>
      <tilted>0</tilted></_>
    <_>
      <rects>
        <_>
          16 22 2 3 -1.</_>
        <_>
          16 22 1 3 2.</_></rects>
      <tilted>1</tilted></_>
    <_>
      <rects>
        <_>
          16 22 3 5 -1.</_>
        <_>
          17 23 1 5 3.</_></rects>
      <tilted>1</tilted></_>
    <_>
      <rects>
        <_>
          16 23 6 12 -1.</_>
        <_>
          16 23 3 6 2.</_>
        <_>
          19 29 3 6 2.</_></rects>
      <tilted>0</tilted></_>
    <_>
      <rects>
        <_>
          16 24 6 3 -1.</_>
        <_>
          18 25 2 1 9.</_></rects>
      <tilted>0</tilted></_>
    <_>
      <rects>
        <_>
          16 24 8 3 -1.</_>
        <_>
          18 24 4 3 2.</_></rects>
      <tilted>0</tilted></_>
    <_>
      <rects>
        <_>
          16 24 9 1 -1.</_>
        <_>
          19 24 3 1 3.</_></rects>
      <tilted>0</tilted></_>
    <_>
      <rects>
        <_>
          16 24 9 16 -1.</_>
        <_>
          19 24 3 16 3.</_></rects>
      <tilted>0</tilted></_>
    <_>
      <rects>
        <_>
          16 24 8 3 -1.</_>
        <_>
          16 25 8 1 3.</_></rects>
      <tilted>0</tilted></_>
    <_>
      <rects>
        <_>
          16 25 9 3 -1.</_>
        <_>
          19 26 3 1 9.</_></rects>
      <tilted>0</tilted></_>
    <_>
      <rects>
        <_>
          16 25 9 2 -1.</_>
        <_>
          19 25 3 2 3.</_></rects>
      <tilted>0</tilted></_>
    <_>
      <rects>
        <_>
          16 26 3 1 -1.</_>
        <_>
          17 26 1 1 3.</_></rects>
      <tilted>0</tilted></_>
    <_>
      <rects>
        <_>
          16 26 3 9 -1.</_>
        <_>
          16 29 3 3 3.</_></rects>
      <tilted>0</tilted></_>
    <_>
      <rects>
        <_>
          16 27 3 1 -1.</_>
        <_>
          17 27 1 1 3.</_></rects>
      <tilted>0</tilted></_>
    <_>
      <rects>
        <_>
          16 28 8 8 -1.</_>
        <_>
          16 28 4 4 2.</_>
        <_>
          20 32 4 4 2.</_></rects>
      <tilted>0</tilted></_>
    <_>
      <rects>
        <_>
          16 32 3 2 -1.</_>
        <_>
          17 32 1 2 3.</_></rects>
      <tilted>0</tilted></_>
    <_>
      <rects>
        <_>
          16 35 3 2 -1.</_>
        <_>
          17 35 1 2 3.</_></rects>
      <tilted>0</tilted></_>
    <_>
      <rects>
        <_>
          16 36 2 4 -1.</_>
        <_>
          16 38 2 2 2.</_></rects>
      <tilted>0</tilted></_>
    <_>
      <rects>
        <_>
          17 0 4 40 -1.</_>
        <_>
          17 0 2 20 2.</_>
        <_>
          19 20 2 20 2.</_></rects>
      <tilted>0</tilted></_>
    <_>
      <rects>
        <_>
          17 1 2 13 -1.</_>
        <_>
          17 1 1 13 2.</_></rects>
      <tilted>1</tilted></_>
    <_>
      <rects>
        <_>
          17 2 10 2 -1.</_>
        <_>
          17 3 10 1 2.</_></rects>
      <tilted>0</tilted></_>
    <_>
      <rects>
        <_>
          17 8 4 2 -1.</_>
        <_>
          18 9 2 2 2.</_></rects>
      <tilted>1</tilted></_>
    <_>
      <rects>
        <_>
          17 14 15 27 -1.</_>
        <_>
          17 23 15 9 3.</_></rects>
      <tilted>0</tilted></_>
    <_>
      <rects>
        <_>
          17 19 12 2 -1.</_>
        <_>
          21 19 4 2 3.</_></rects>
      <tilted>0</tilted></_>
    <_>
      <rects>
        <_>
          17 20 16 2 -1.</_>
        <_>
          21 20 8 2 2.</_></rects>
      <tilted>0</tilted></_>
    <_>
      <rects>
        <_>
          17 21 4 8 -1.</_>
        <_>
          18 22 2 8 2.</_></rects>
      <tilted>1</tilted></_>
    <_>
      <rects>
        <_>
          17 21 9 2 -1.</_>
        <_>
          20 21 3 2 3.</_></rects>
      <tilted>0</tilted></_>
    <_>
      <rects>
        <_>
          17 21 6 10 -1.</_>
        <_>
          17 21 3 5 2.</_>
        <_>
          20 26 3 5 2.</_></rects>
      <tilted>0</tilted></_>
    <_>
      <rects>
        <_>
          17 21 12 4 -1.</_>
        <_>
          21 21 4 4 3.</_></rects>
      <tilted>0</tilted></_>
    <_>
      <rects>
        <_>
          17 22 4 6 -1.</_>
        <_>
          17 22 2 3 2.</_>
        <_>
          19 25 2 3 2.</_></rects>
      <tilted>0</tilted></_>
    <_>
      <rects>
        <_>
          17 24 6 1 -1.</_>
        <_>
          19 24 2 1 3.</_></rects>
      <tilted>0</tilted></_>
    <_>
      <rects>
        <_>
          17 24 8 1 -1.</_>
        <_>
          19 24 4 1 2.</_></rects>
      <tilted>0</tilted></_>
    <_>
      <rects>
        <_>
          17 25 6 6 -1.</_>
        <_>
          19 27 2 2 9.</_></rects>
      <tilted>0</tilted></_>
    <_>
      <rects>
        <_>
          17 25 9 3 -1.</_>
        <_>
          20 25 3 3 3.</_></rects>
      <tilted>0</tilted></_>
    <_>
      <rects>
        <_>
          17 25 5 6 -1.</_>
        <_>
          15 27 5 2 3.</_></rects>
      <tilted>1</tilted></_>
    <_>
      <rects>
        <_>
          17 25 6 9 -1.</_>
        <_>
          14 28 6 3 3.</_></rects>
      <tilted>1</tilted></_>
    <_>
      <rects>
        <_>
          17 26 8 2 -1.</_>
        <_>
          19 26 4 2 2.</_></rects>
      <tilted>0</tilted></_>
    <_>
      <rects>
        <_>
          17 27 4 10 -1.</_>
        <_>
          18 27 2 10 2.</_></rects>
      <tilted>0</tilted></_>
    <_>
      <rects>
        <_>
          17 27 12 4 -1.</_>
        <_>
          17 28 12 2 2.</_></rects>
      <tilted>0</tilted></_>
    <_>
      <rects>
        <_>
          17 28 3 6 -1.</_>
        <_>
          18 30 1 2 9.</_></rects>
      <tilted>0</tilted></_>
    <_>
      <rects>
        <_>
          17 30 12 8 -1.</_>
        <_>
          17 32 12 4 2.</_></rects>
      <tilted>0</tilted></_>
    <_>
      <rects>
        <_>
          17 34 15 12 -1.</_>
        <_>
          17 40 15 6 2.</_></rects>
      <tilted>0</tilted></_>
    <_>
      <rects>
        <_>
          17 37 4 7 -1.</_>
        <_>
          19 37 2 7 2.</_></rects>
      <tilted>0</tilted></_>
    <_>
      <rects>
        <_>
          17 42 9 1 -1.</_>
        <_>
          20 42 3 1 3.</_></rects>
      <tilted>0</tilted></_>
    <_>
      <rects>
        <_>
          18 0 10 3 -1.</_>
        <_>
          17 1 10 1 3.</_></rects>
      <tilted>1</tilted></_>
    <_>
      <rects>
        <_>
          18 3 4 3 -1.</_>
        <_>
          18 4 4 1 3.</_></rects>
      <tilted>0</tilted></_>
    <_>
      <rects>
        <_>
          18 3 16 8 -1.</_>
        <_>
          18 5 16 4 2.</_></rects>
      <tilted>0</tilted></_>
    <_>
      <rects>
        <_>
          18 6 17 3 -1.</_>
        <_>
          18 7 17 1 3.</_></rects>
      <tilted>0</tilted></_>
    <_>
      <rects>
        <_>
          18 8 4 6 -1.</_>
        <_>
          18 10 4 2 3.</_></rects>
      <tilted>0</tilted></_>
    <_>
      <rects>
        <_>
          18 8 12 42 -1.</_>
        <_>
          22 22 4 14 9.</_></rects>
      <tilted>0</tilted></_>
    <_>
      <rects>
        <_>
          18 10 2 24 -1.</_>
        <_>
          18 10 1 12 2.</_>
        <_>
          19 22 1 12 2.</_></rects>
      <tilted>0</tilted></_>
    <_>
      <rects>
        <_>
          18 12 6 1 -1.</_>
        <_>
          21 12 3 1 2.</_></rects>
      <tilted>0</tilted></_>
    <_>
      <rects>
        <_>
          18 12 7 14 -1.</_>
        <_>
          18 12 7 7 2.</_></rects>
      <tilted>1</tilted></_>
    <_>
      <rects>
        <_>
          18 14 3 1 -1.</_>
        <_>
          19 14 1 1 3.</_></rects>
      <tilted>0</tilted></_>
    <_>
      <rects>
        <_>
          18 15 3 2 -1.</_>
        <_>
          19 15 1 2 3.</_></rects>
      <tilted>0</tilted></_>
    <_>
      <rects>
        <_>
          18 15 11 24 -1.</_>
        <_>
          18 21 11 12 2.</_></rects>
      <tilted>0</tilted></_>
    <_>
      <rects>
        <_>
          18 18 6 6 -1.</_>
        <_>
          20 20 2 2 9.</_></rects>
      <tilted>0</tilted></_>
    <_>
      <rects>
        <_>
          18 19 4 12 -1.</_>
        <_>
          18 19 2 6 2.</_>
        <_>
          20 25 2 6 2.</_></rects>
      <tilted>0</tilted></_>
    <_>
      <rects>
        <_>
          18 21 12 9 -1.</_>
        <_>
          22 24 4 3 9.</_></rects>
      <tilted>0</tilted></_>
    <_>
      <rects>
        <_>
          18 22 6 3 -1.</_>
        <_>
          20 22 2 3 3.</_></rects>
      <tilted>0</tilted></_>
    <_>
      <rects>
        <_>
          18 23 3 1 -1.</_>
        <_>
          19 23 1 1 3.</_></rects>
      <tilted>0</tilted></_>
    <_>
      <rects>
        <_>
          18 23 9 1 -1.</_>
        <_>
          21 23 3 1 3.</_></rects>
      <tilted>0</tilted></_>
    <_>
      <rects>
        <_>
          18 23 12 2 -1.</_>
        <_>
          21 23 6 2 2.</_></rects>
      <tilted>0</tilted></_>
    <_>
      <rects>
        <_>
          18 24 6 3 -1.</_>
        <_>
          20 25 2 1 9.</_></rects>
      <tilted>0</tilted></_>
    <_>
      <rects>
        <_>
          18 26 1 18 -1.</_>
        <_>
          18 26 1 9 2.</_></rects>
      <tilted>1</tilted></_>
    <_>
      <rects>
        <_>
          18 26 8 4 -1.</_>
        <_>
          18 26 4 2 2.</_>
        <_>
          22 28 4 2 2.</_></rects>
      <tilted>0</tilted></_>
    <_>
      <rects>
        <_>
          18 26 4 4 -1.</_>
        <_>
          18 26 4 2 2.</_></rects>
      <tilted>1</tilted></_>
    <_>
      <rects>
        <_>
          18 26 6 9 -1.</_>
        <_>
          18 29 6 3 3.</_></rects>
      <tilted>0</tilted></_>
    <_>
      <rects>
        <_>
          18 28 3 1 -1.</_>
        <_>
          19 28 1 1 3.</_></rects>
      <tilted>0</tilted></_>
    <_>
      <rects>
        <_>
          18 30 4 6 -1.</_>
        <_>
          18 33 4 3 2.</_></rects>
      <tilted>0</tilted></_>
    <_>
      <rects>
        <_>
          18 32 8 1 -1.</_>
        <_>
          20 32 4 1 2.</_></rects>
      <tilted>0</tilted></_>
    <_>
      <rects>
        <_>
          18 32 9 8 -1.</_>
        <_>
          18 34 9 4 2.</_></rects>
      <tilted>0</tilted></_>
    <_>
      <rects>
        <_>
          18 34 4 2 -1.</_>
        <_>
          19 34 2 2 2.</_></rects>
      <tilted>0</tilted></_>
    <_>
      <rects>
        <_>
          19 2 2 11 -1.</_>
        <_>
          20 2 1 11 2.</_></rects>
      <tilted>0</tilted></_>
    <_>
      <rects>
        <_>
          19 5 4 11 -1.</_>
        <_>
          19 5 2 11 2.</_></rects>
      <tilted>1</tilted></_>
    <_>
      <rects>
        <_>
          19 8 16 13 -1.</_>
        <_>
          23 12 8 13 2.</_></rects>
      <tilted>1</tilted></_>
    <_>
      <rects>
        <_>
          19 15 9 4 -1.</_>
        <_>
          19 15 9 2 2.</_></rects>
      <tilted>1</tilted></_>
    <_>
      <rects>
        <_>
          19 15 16 15 -1.</_>
        <_>
          14 20 16 5 3.</_></rects>
      <tilted>1</tilted></_>
    <_>
      <rects>
        <_>
          19 19 1 3 -1.</_>
        <_>
          19 20 1 1 3.</_></rects>
      <tilted>0</tilted></_>
    <_>
      <rects>
        <_>
          19 22 8 6 -1.</_>
        <_>
          21 22 4 6 2.</_></rects>
      <tilted>0</tilted></_>
    <_>
      <rects>
        <_>
          19 22 8 10 -1.</_>
        <_>
          19 22 4 5 2.</_>
        <_>
          23 27 4 5 2.</_></rects>
      <tilted>0</tilted></_>
    <_>
      <rects>
        <_>
          19 22 12 5 -1.</_>
        <_>
          25 22 6 5 2.</_></rects>
      <tilted>0</tilted></_>
    <_>
      <rects>
        <_>
          19 22 15 3 -1.</_>
        <_>
          19 23 15 1 3.</_></rects>
      <tilted>0</tilted></_>
    <_>
      <rects>
        <_>
          19 24 8 5 -1.</_>
        <_>
          21 24 4 5 2.</_></rects>
      <tilted>0</tilted></_>
    <_>
      <rects>
        <_>
          19 26 15 2 -1.</_>
        <_>
          24 26 5 2 3.</_></rects>
      <tilted>0</tilted></_>
    <_>
      <rects>
        <_>
          19 30 13 18 -1.</_>
        <_>
          19 39 13 9 2.</_></rects>
      <tilted>0</tilted></_>
    <_>
      <rects>
        <_>
          19 34 16 8 -1.</_>
        <_>
          19 34 8 4 2.</_>
        <_>
          27 38 8 4 2.</_></rects>
      <tilted>0</tilted></_>
    <_>
      <rects>
        <_>
          19 37 6 8 -1.</_>
        <_>
          21 37 2 8 3.</_></rects>
      <tilted>0</tilted></_>
    <_>
      <rects>
        <_>
          19 38 6 9 -1.</_>
        <_>
          19 41 6 3 3.</_></rects>
      <tilted>0</tilted></_>
    <_>
      <rects>
        <_>
          19 38 11 9 -1.</_>
        <_>
          19 41 11 3 3.</_></rects>
      <tilted>0</tilted></_>
    <_>
      <rects>
        <_>
          20 2 15 20 -1.</_>
        <_>
          20 12 15 10 2.</_></rects>
      <tilted>0</tilted></_>
    <_>
      <rects>
        <_>
          20 12 4 6 -1.</_>
        <_>
          21 12 2 6 2.</_></rects>
      <tilted>0</tilted></_>
    <_>
      <rects>
        <_>
          20 18 3 14 -1.</_>
        <_>
          21 18 1 14 3.</_></rects>
      <tilted>0</tilted></_>
    <_>
      <rects>
        <_>
          20 19 3 2 -1.</_>
        <_>
          21 19 1 2 3.</_></rects>
      <tilted>0</tilted></_>
    <_>
      <rects>
        <_>
          20 23 9 1 -1.</_>
        <_>
          23 23 3 1 3.</_></rects>
      <tilted>0</tilted></_>
    <_>
      <rects>
        <_>
          20 26 9 3 -1.</_>
        <_>
          23 26 3 3 3.</_></rects>
      <tilted>0</tilted></_>
    <_>
      <rects>
        <_>
          20 27 4 6 -1.</_>
        <_>
          22 27 2 6 2.</_></rects>
      <tilted>0</tilted></_>
    <_>
      <rects>
        <_>
          20 29 15 3 -1.</_>
        <_>
          25 30 5 1 9.</_></rects>
      <tilted>0</tilted></_>
    <_>
      <rects>
        <_>
          20 31 4 4 -1.</_>
        <_>
          20 33 4 2 2.</_></rects>
      <tilted>0</tilted></_>
    <_>
      <rects>
        <_>
          20 32 4 8 -1.</_>
        <_>
          20 32 2 4 2.</_>
        <_>
          22 36 2 4 2.</_></rects>
      <tilted>0</tilted></_>
    <_>
      <rects>
        <_>
          20 33 6 6 -1.</_>
        <_>
          20 35 6 2 3.</_></rects>
      <tilted>0</tilted></_>
    <_>
      <rects>
        <_>
          20 35 12 14 -1.</_>
        <_>
          20 35 6 7 2.</_>
        <_>
          26 42 6 7 2.</_></rects>
      <tilted>0</tilted></_>
    <_>
      <rects>
        <_>
          20 41 8 3 -1.</_>
        <_>
          22 41 4 3 2.</_></rects>
      <tilted>0</tilted></_>
    <_>
      <rects>
        <_>
          21 0 14 4 -1.</_>
        <_>
          28 0 7 4 2.</_></rects>
      <tilted>0</tilted></_>
    <_>
      <rects>
        <_>
          21 0 14 3 -1.</_>
        <_>
          21 1 14 1 3.</_></rects>
      <tilted>0</tilted></_>
    <_>
      <rects>
        <_>
          21 4 14 6 -1.</_>
        <_>
          21 4 14 3 2.</_></rects>
      <tilted>1</tilted></_>
    <_>
      <rects>
        <_>
          21 7 8 35 -1.</_>
        <_>
          23 7 4 35 2.</_></rects>
      <tilted>0</tilted></_>
    <_>
      <rects>
        <_>
          21 13 3 6 -1.</_>
        <_>
          21 15 3 2 3.</_></rects>
      <tilted>0</tilted></_>
    <_>
      <rects>
        <_>
          21 14 14 14 -1.</_>
        <_>
          21 14 7 14 2.</_></rects>
      <tilted>1</tilted></_>
    <_>
      <rects>
        <_>
          21 15 6 20 -1.</_>
        <_>
          21 15 3 10 2.</_>
        <_>
          24 25 3 10 2.</_></rects>
      <tilted>0</tilted></_>
    <_>
      <rects>
        <_>
          21 18 3 11 -1.</_>
        <_>
          22 18 1 11 3.</_></rects>
      <tilted>0</tilted></_>
    <_>
      <rects>
        <_>
          21 19 1 3 -1.</_>
        <_>
          21 20 1 1 3.</_></rects>
      <tilted>0</tilted></_>
    <_>
      <rects>
        <_>
          21 19 8 6 -1.</_>
        <_>
          21 19 4 3 2.</_>
        <_>
          25 22 4 3 2.</_></rects>
      <tilted>0</tilted></_>
    <_>
      <rects>
        <_>
          21 21 2 20 -1.</_>
        <_>
          21 21 1 10 2.</_>
        <_>
          22 31 1 10 2.</_></rects>
      <tilted>0</tilted></_>
    <_>
      <rects>
        <_>
          21 21 6 2 -1.</_>
        <_>
          24 21 3 2 2.</_></rects>
      <tilted>0</tilted></_>
    <_>
      <rects>
        <_>
          21 21 8 4 -1.</_>
        <_>
          25 21 4 4 2.</_></rects>
      <tilted>0</tilted></_>
    <_>
      <rects>
        <_>
          21 24 1 3 -1.</_>
        <_>
          21 25 1 1 3.</_></rects>
      <tilted>0</tilted></_>
    <_>
      <rects>
        <_>
          21 25 3 2 -1.</_>
        <_>
          22 25 1 2 3.</_></rects>
      <tilted>0</tilted></_>
    <_>
      <rects>
        <_>
          21 25 8 4 -1.</_>
        <_>
          23 25 4 4 2.</_></rects>
      <tilted>0</tilted></_>
    <_>
      <rects>
        <_>
          21 25 12 1 -1.</_>
        <_>
          25 25 4 1 3.</_></rects>
      <tilted>0</tilted></_>
    <_>
      <rects>
        <_>
          21 26 6 6 -1.</_>
        <_>
          23 28 2 2 9.</_></rects>
      <tilted>0</tilted></_>
    <_>
      <rects>
        <_>
          21 27 12 2 -1.</_>
        <_>
          25 27 4 2 3.</_></rects>
      <tilted>0</tilted></_>
    <_>
      <rects>
        <_>
          21 28 3 1 -1.</_>
        <_>
          22 28 1 1 3.</_></rects>
      <tilted>0</tilted></_>
    <_>
      <rects>
        <_>
          21 30 1 2 -1.</_>
        <_>
          21 30 1 1 2.</_></rects>
      <tilted>1</tilted></_>
    <_>
      <rects>
        <_>
          21 30 7 4 -1.</_>
        <_>
          21 31 7 2 2.</_></rects>
      <tilted>0</tilted></_>
    <_>
      <rects>
        <_>
          21 31 2 7 -1.</_>
        <_>
          21 31 1 7 2.</_></rects>
      <tilted>1</tilted></_>
    <_>
      <rects>
        <_>
          21 31 6 1 -1.</_>
        <_>
          24 31 3 1 2.</_></rects>
      <tilted>0</tilted></_>
    <_>
      <rects>
        <_>
          21 34 6 4 -1.</_>
        <_>
          21 34 3 2 2.</_>
        <_>
          24 36 3 2 2.</_></rects>
      <tilted>0</tilted></_>
    <_>
      <rects>
        <_>
          21 37 10 6 -1.</_>
        <_>
          21 39 10 2 3.</_></rects>
      <tilted>0</tilted></_>
    <_>
      <rects>
        <_>
          22 12 3 12 -1.</_>
        <_>
          22 12 3 6 2.</_></rects>
      <tilted>1</tilted></_>
    <_>
      <rects>
        <_>
          22 13 2 4 -1.</_>
        <_>
          22 14 2 2 2.</_></rects>
      <tilted>0</tilted></_>
    <_>
      <rects>
        <_>
          22 16 12 3 -1.</_>
        <_>
          25 16 6 3 2.</_></rects>
      <tilted>0</tilted></_>
    <_>
      <rects>
        <_>
          22 16 12 16 -1.</_>
        <_>
          22 20 12 8 2.</_></rects>
      <tilted>0</tilted></_>
    <_>
      <rects>
        <_>
          22 17 6 6 -1.</_>
        <_>
          24 19 2 2 9.</_></rects>
      <tilted>0</tilted></_>
    <_>
      <rects>
        <_>
          22 18 3 7 -1.</_>
        <_>
          23 18 1 7 3.</_></rects>
      <tilted>0</tilted></_>
    <_>
      <rects>
        <_>
          22 20 4 2 -1.</_>
        <_>
          22 20 2 1 2.</_>
        <_>
          24 21 2 1 2.</_></rects>
      <tilted>0</tilted></_>
    <_>
      <rects>
        <_>
          22 21 9 9 -1.</_>
        <_>
          25 24 3 3 9.</_></rects>
      <tilted>0</tilted></_>
    <_>
      <rects>
        <_>
          22 24 1 3 -1.</_>
        <_>
          22 25 1 1 3.</_></rects>
      <tilted>0</tilted></_>
    <_>
      <rects>
        <_>
          22 26 4 6 -1.</_>
        <_>
          22 26 2 3 2.</_>
        <_>
          24 29 2 3 2.</_></rects>
      <tilted>0</tilted></_>
    <_>
      <rects>
        <_>
          22 27 9 2 -1.</_>
        <_>
          25 27 3 2 3.</_></rects>
      <tilted>0</tilted></_>
    <_>
      <rects>
        <_>
          22 28 3 1 -1.</_>
        <_>
          23 28 1 1 3.</_></rects>
      <tilted>0</tilted></_>
    <_>
      <rects>
        <_>
          22 29 3 1 -1.</_>
        <_>
          23 29 1 1 3.</_></rects>
      <tilted>0</tilted></_>
    <_>
      <rects>
        <_>
          22 35 1 2 -1.</_>
        <_>
          22 36 1 1 2.</_></rects>
      <tilted>0</tilted></_>
    <_>
      <rects>
        <_>
          23 0 12 2 -1.</_>
        <_>
          29 0 6 2 2.</_></rects>
      <tilted>0</tilted></_>
    <_>
      <rects>
        <_>
          23 1 6 18 -1.</_>
        <_>
          23 10 6 9 2.</_></rects>
      <tilted>0</tilted></_>
    <_>
      <rects>
        <_>
          23 3 10 2 -1.</_>
        <_>
          23 3 5 1 2.</_>
        <_>
          28 4 5 1 2.</_></rects>
      <tilted>0</tilted></_>
    <_>
      <rects>
        <_>
          23 8 1 4 -1.</_>
        <_>
          23 10 1 2 2.</_></rects>
      <tilted>0</tilted></_>
    <_>
      <rects>
        <_>
          23 10 12 9 -1.</_>
        <_>
          20 13 12 3 3.</_></rects>
      <tilted>1</tilted></_>
    <_>
      <rects>
        <_>
          23 13 9 6 -1.</_>
        <_>
          21 15 9 2 3.</_></rects>
      <tilted>1</tilted></_>
    <_>
      <rects>
        <_>
          23 15 4 4 -1.</_>
        <_>
          23 15 2 2 2.</_>
        <_>
          25 17 2 2 2.</_></rects>
      <tilted>0</tilted></_>
    <_>
      <rects>
        <_>
          23 17 9 14 -1.</_>
        <_>
          23 17 9 7 2.</_></rects>
      <tilted>1</tilted></_>
    <_>
      <rects>
        <_>
          23 19 2 1 -1.</_>
        <_>
          24 19 1 1 2.</_></rects>
      <tilted>0</tilted></_>
    <_>
      <rects>
        <_>
          23 19 4 6 -1.</_>
        <_>
          23 19 2 3 2.</_>
        <_>
          25 22 2 3 2.</_></rects>
      <tilted>0</tilted></_>
    <_>
      <rects>
        <_>
          23 19 4 18 -1.</_>
        <_>
          23 19 2 9 2.</_>
        <_>
          25 28 2 9 2.</_></rects>
      <tilted>0</tilted></_>
    <_>
      <rects>
        <_>
          23 21 4 6 -1.</_>
        <_>
          23 21 2 3 2.</_>
        <_>
          25 24 2 3 2.</_></rects>
      <tilted>0</tilted></_>
    <_>
      <rects>
        <_>
          23 22 12 12 -1.</_>
        <_>
          23 22 6 6 2.</_>
        <_>
          29 28 6 6 2.</_></rects>
      <tilted>0</tilted></_>
    <_>
      <rects>
        <_>
          23 24 6 19 -1.</_>
        <_>
          25 26 2 19 3.</_></rects>
      <tilted>1</tilted></_>
    <_>
      <rects>
        <_>
          23 27 3 2 -1.</_>
        <_>
          24 28 1 2 3.</_></rects>
      <tilted>1</tilted></_>
    <_>
      <rects>
        <_>
          23 31 5 9 -1.</_>
        <_>
          23 34 5 3 3.</_></rects>
      <tilted>0</tilted></_>
    <_>
      <rects>
        <_>
          24 2 9 48 -1.</_>
        <_>
          24 14 9 24 2.</_></rects>
      <tilted>0</tilted></_>
    <_>
      <rects>
        <_>
          24 3 2 20 -1.</_>
        <_>
          24 13 2 10 2.</_></rects>
      <tilted>0</tilted></_>
    <_>
      <rects>
        <_>
          24 3 8 4 -1.</_>
        <_>
          28 3 4 4 2.</_></rects>
      <tilted>0</tilted></_>
    <_>
      <rects>
        <_>
          24 7 10 3 -1.</_>
        <_>
          23 8 10 1 3.</_></rects>
      <tilted>1</tilted></_>
    <_>
      <rects>
        <_>
          24 12 8 14 -1.</_>
        <_>
          24 12 4 7 2.</_>
        <_>
          28 19 4 7 2.</_></rects>
      <tilted>0</tilted></_>
    <_>
      <rects>
        <_>
          24 14 6 12 -1.</_>
        <_>
          26 18 2 4 9.</_></rects>
      <tilted>0</tilted></_>
    <_>
      <rects>
        <_>
          24 14 9 4 -1.</_>
        <_>
          24 14 9 2 2.</_></rects>
      <tilted>1</tilted></_>
    <_>
      <rects>
        <_>
          24 19 4 25 -1.</_>
        <_>
          25 19 2 25 2.</_></rects>
      <tilted>0</tilted></_>
    <_>
      <rects>
        <_>
          24 23 4 13 -1.</_>
        <_>
          25 24 2 13 2.</_></rects>
      <tilted>1</tilted></_>
    <_>
      <rects>
        <_>
          24 23 8 5 -1.</_>
        <_>
          26 23 4 5 2.</_></rects>
      <tilted>0</tilted></_>
    <_>
      <rects>
        <_>
          24 24 6 7 -1.</_>
        <_>
          26 24 2 7 3.</_></rects>
      <tilted>0</tilted></_>
    <_>
      <rects>
        <_>
          24 25 6 4 -1.</_>
        <_>
          26 25 2 4 3.</_></rects>
      <tilted>0</tilted></_>
    <_>
      <rects>
        <_>
          24 29 5 18 -1.</_>
        <_>
          24 35 5 6 3.</_></rects>
      <tilted>0</tilted></_>
    <_>
      <rects>
        <_>
          24 31 10 12 -1.</_>
        <_>
          24 31 5 6 2.</_>
        <_>
          29 37 5 6 2.</_></rects>
      <tilted>0</tilted></_>
    <_>
      <rects>
        <_>
          24 33 3 2 -1.</_>
        <_>
          25 33 1 2 3.</_></rects>
      <tilted>0</tilted></_>
    <_>
      <rects>
        <_>
          24 35 3 1 -1.</_>
        <_>
          25 35 1 1 3.</_></rects>
      <tilted>0</tilted></_>
    <_>
      <rects>
        <_>
          24 41 8 7 -1.</_>
        <_>
          26 41 4 7 2.</_></rects>
      <tilted>0</tilted></_>
    <_>
      <rects>
        <_>
          24 48 2 2 -1.</_>
        <_>
          24 48 1 1 2.</_>
        <_>
          25 49 1 1 2.</_></rects>
      <tilted>0</tilted></_>
    <_>
      <rects>
        <_>
          25 5 10 14 -1.</_>
        <_>
          25 12 10 7 2.</_></rects>
      <tilted>0</tilted></_>
    <_>
      <rects>
        <_>
          25 8 1 6 -1.</_>
        <_>
          23 10 1 2 3.</_></rects>
      <tilted>1</tilted></_>
    <_>
      <rects>
        <_>
          25 12 8 17 -1.</_>
        <_>
          25 12 4 17 2.</_></rects>
      <tilted>1</tilted></_>
    <_>
      <rects>
        <_>
          25 14 7 2 -1.</_>
        <_>
          25 15 7 1 2.</_></rects>
      <tilted>0</tilted></_>
    <_>
      <rects>
        <_>
          25 16 4 2 -1.</_>
        <_>
          27 16 2 2 2.</_></rects>
      <tilted>0</tilted></_>
    <_>
      <rects>
        <_>
          25 19 2 16 -1.</_>
        <_>
          25 19 1 16 2.</_></rects>
      <tilted>1</tilted></_>
    <_>
      <rects>
        <_>
          25 20 4 6 -1.</_>
        <_>
          25 20 2 3 2.</_>
        <_>
          27 23 2 3 2.</_></rects>
      <tilted>0</tilted></_>
    <_>
      <rects>
        <_>
          25 25 3 6 -1.</_>
        <_>
          26 26 1 6 3.</_></rects>
      <tilted>1</tilted></_>
    <_>
      <rects>
        <_>
          25 33 10 7 -1.</_>
        <_>
          25 33 5 7 2.</_></rects>
      <tilted>1</tilted></_>
    <_>
      <rects>
        <_>
          25 35 10 4 -1.</_>
        <_>
          25 35 5 4 2.</_></rects>
      <tilted>1</tilted></_>
    <_>
      <rects>
        <_>
          25 40 8 6 -1.</_>
        <_>
          25 40 4 3 2.</_>
        <_>
          29 43 4 3 2.</_></rects>
      <tilted>0</tilted></_>
    <_>
      <rects>
        <_>
          26 0 8 2 -1.</_>
        <_>
          30 0 4 2 2.</_></rects>
      <tilted>0</tilted></_>
    <_>
      <rects>
        <_>
          26 8 9 5 -1.</_>
        <_>
          29 11 3 5 3.</_></rects>
      <tilted>1</tilted></_>
    <_>
      <rects>
        <_>
          26 9 8 6 -1.</_>
        <_>
          26 9 8 3 2.</_></rects>
      <tilted>1</tilted></_>
    <_>
      <rects>
        <_>
          26 11 5 4 -1.</_>
        <_>
          26 12 5 2 2.</_></rects>
      <tilted>0</tilted></_>
    <_>
      <rects>
        <_>
          26 14 3 16 -1.</_>
        <_>
          27 14 1 16 3.</_></rects>
      <tilted>0</tilted></_>
    <_>
      <rects>
        <_>
          26 14 3 19 -1.</_>
        <_>
          27 14 1 19 3.</_></rects>
      <tilted>0</tilted></_>
    <_>
      <rects>
        <_>
          26 14 9 2 -1.</_>
        <_>
          29 17 3 2 3.</_></rects>
      <tilted>1</tilted></_>
    <_>
      <rects>
        <_>
          26 15 8 12 -1.</_>
        <_>
          26 15 4 6 2.</_>
        <_>
          30 21 4 6 2.</_></rects>
      <tilted>0</tilted></_>
    <_>
      <rects>
        <_>
          26 16 8 10 -1.</_>
        <_>
          26 16 4 5 2.</_>
        <_>
          30 21 4 5 2.</_></rects>
      <tilted>0</tilted></_>
    <_>
      <rects>
        <_>
          26 18 2 22 -1.</_>
        <_>
          26 18 1 11 2.</_>
        <_>
          27 29 1 11 2.</_></rects>
      <tilted>0</tilted></_>
    <_>
      <rects>
        <_>
          26 20 3 1 -1.</_>
        <_>
          27 20 1 1 3.</_></rects>
      <tilted>0</tilted></_>
    <_>
      <rects>
        <_>
          26 26 7 24 -1.</_>
        <_>
          26 38 7 12 2.</_></rects>
      <tilted>0</tilted></_>
    <_>
      <rects>
        <_>
          26 27 6 1 -1.</_>
        <_>
          28 29 2 1 3.</_></rects>
      <tilted>1</tilted></_>
    <_>
      <rects>
        <_>
          26 28 9 5 -1.</_>
        <_>
          29 28 3 5 3.</_></rects>
      <tilted>0</tilted></_>
    <_>
      <rects>
        <_>
          26 30 6 2 -1.</_>
        <_>
          29 30 3 2 2.</_></rects>
      <tilted>0</tilted></_>
    <_>
      <rects>
        <_>
          26 31 3 1 -1.</_>
        <_>
          27 31 1 1 3.</_></rects>
      <tilted>0</tilted></_>
    <_>
      <rects>
        <_>
          26 32 5 18 -1.</_>
        <_>
          26 41 5 9 2.</_></rects>
      <tilted>0</tilted></_>
    <_>
      <rects>
        <_>
          26 38 1 4 -1.</_>
        <_>
          26 39 1 2 2.</_></rects>
      <tilted>0</tilted></_>
    <_>
      <rects>
        <_>
          26 48 4 2 -1.</_>
        <_>
          28 48 2 2 2.</_></rects>
      <tilted>0</tilted></_>
    <_>
      <rects>
        <_>
          27 0 2 18 -1.</_>
        <_>
          28 0 1 18 2.</_></rects>
      <tilted>0</tilted></_>
    <_>
      <rects>
        <_>
          27 0 6 2 -1.</_>
        <_>
          30 0 3 2 2.</_></rects>
      <tilted>0</tilted></_>
    <_>
      <rects>
        <_>
          27 1 8 48 -1.</_>
        <_>
          27 17 8 16 3.</_></rects>
      <tilted>0</tilted></_>
    <_>
      <rects>
        <_>
          27 2 6 48 -1.</_>
        <_>
          27 14 6 24 2.</_></rects>
      <tilted>0</tilted></_>
    <_>
      <rects>
        <_>
          27 9 1 9 -1.</_>
        <_>
          27 12 1 3 3.</_></rects>
      <tilted>0</tilted></_>
    <_>
      <rects>
        <_>
          27 10 6 3 -1.</_>
        <_>
          29 12 2 3 3.</_></rects>
      <tilted>1</tilted></_>
    <_>
      <rects>
        <_>
          27 10 8 11 -1.</_>
        <_>
          29 10 4 11 2.</_></rects>
      <tilted>0</tilted></_>
    <_>
      <rects>
        <_>
          27 12 6 32 -1.</_>
        <_>
          29 12 2 32 3.</_></rects>
      <tilted>0</tilted></_>
    <_>
      <rects>
        <_>
          27 16 3 17 -1.</_>
        <_>
          28 16 1 17 3.</_></rects>
      <tilted>0</tilted></_>
    <_>
      <rects>
        <_>
          27 26 8 3 -1.</_>
        <_>
          31 26 4 3 2.</_></rects>
      <tilted>0</tilted></_>
    <_>
      <rects>
        <_>
          27 27 8 4 -1.</_>
        <_>
          29 27 4 4 2.</_></rects>
      <tilted>0</tilted></_>
    <_>
      <rects>
        <_>
          27 29 3 6 -1.</_>
        <_>
          27 31 3 2 3.</_></rects>
      <tilted>0</tilted></_>
    <_>
      <rects>
        <_>
          28 0 4 8 -1.</_>
        <_>
          29 1 2 8 2.</_></rects>
      <tilted>1</tilted></_>
    <_>
      <rects>
        <_>
          28 10 5 6 -1.</_>
        <_>
          26 12 5 2 3.</_></rects>
      <tilted>1</tilted></_>
    <_>
      <rects>
        <_>
          28 12 6 6 -1.</_>
        <_>
          26 14 6 2 3.</_></rects>
      <tilted>1</tilted></_>
    <_>
      <rects>
        <_>
          28 17 6 8 -1.</_>
        <_>
          28 17 3 4 2.</_>
        <_>
          31 21 3 4 2.</_></rects>
      <tilted>0</tilted></_>
    <_>
      <rects>
        <_>
          28 20 3 1 -1.</_>
        <_>
          29 20 1 1 3.</_></rects>
      <tilted>0</tilted></_>
    <_>
      <rects>
        <_>
          28 23 3 4 -1.</_>
        <_>
          27 24 3 2 2.</_></rects>
      <tilted>1</tilted></_>
    <_>
      <rects>
        <_>
          28 24 4 4 -1.</_>
        <_>
          29 25 2 4 2.</_></rects>
      <tilted>1</tilted></_>
    <_>
      <rects>
        <_>
          28 24 4 16 -1.</_>
        <_>
          28 24 2 8 2.</_>
        <_>
          30 32 2 8 2.</_></rects>
      <tilted>0</tilted></_>
    <_>
      <rects>
        <_>
          28 28 6 6 -1.</_>
        <_>
          28 28 3 3 2.</_>
        <_>
          31 31 3 3 2.</_></rects>
      <tilted>0</tilted></_>
    <_>
      <rects>
        <_>
          28 33 4 16 -1.</_>
        <_>
          28 41 4 8 2.</_></rects>
      <tilted>0</tilted></_>
    <_>
      <rects>
        <_>
          28 37 1 4 -1.</_>
        <_>
          27 38 1 2 2.</_></rects>
      <tilted>1</tilted></_>
    <_>
      <rects>
        <_>
          28 38 3 1 -1.</_>
        <_>
          29 38 1 1 3.</_></rects>
      <tilted>0</tilted></_>
    <_>
      <rects>
        <_>
          29 2 1 3 -1.</_>
        <_>
          29 3 1 1 3.</_></rects>
      <tilted>0</tilted></_>
    <_>
      <rects>
        <_>
          29 9 1 12 -1.</_>
        <_>
          29 13 1 4 3.</_></rects>
      <tilted>0</tilted></_>
    <_>
      <rects>
        <_>
          29 10 6 8 -1.</_>
        <_>
          27 12 6 4 2.</_></rects>
      <tilted>1</tilted></_>
    <_>
      <rects>
        <_>
          29 12 6 6 -1.</_>
        <_>
          27 14 6 2 3.</_></rects>
      <tilted>1</tilted></_>
    <_>
      <rects>
        <_>
          29 15 3 2 -1.</_>
        <_>
          30 16 1 2 3.</_></rects>
      <tilted>1</tilted></_>
    <_>
      <rects>
        <_>
          29 15 6 21 -1.</_>
        <_>
          32 15 3 21 2.</_></rects>
      <tilted>0</tilted></_>
    <_>
      <rects>
        <_>
          29 19 6 10 -1.</_>
        <_>
          31 19 2 10 3.</_></rects>
      <tilted>0</tilted></_>
    <_>
      <rects>
        <_>
          29 26 6 7 -1.</_>
        <_>
          31 26 2 7 3.</_></rects>
      <tilted>0</tilted></_>
    <_>
      <rects>
        <_>
          29 29 3 1 -1.</_>
        <_>
          30 29 1 1 3.</_></rects>
      <tilted>0</tilted></_>
    <_>
      <rects>
        <_>
          29 33 6 2 -1.</_>
        <_>
          32 33 3 2 2.</_></rects>
      <tilted>0</tilted></_>
    <_>
      <rects>
        <_>
          29 34 6 1 -1.</_>
        <_>
          32 34 3 1 2.</_></rects>
      <tilted>0</tilted></_>
    <_>
      <rects>
        <_>
          30 0 3 1 -1.</_>
        <_>
          31 0 1 1 3.</_></rects>
      <tilted>0</tilted></_>
    <_>
      <rects>
        <_>
          30 9 5 8 -1.</_>
        <_>
          30 13 5 4 2.</_></rects>
      <tilted>0</tilted></_>
    <_>
      <rects>
        <_>
          30 14 5 3 -1.</_>
        <_>
          29 15 5 1 3.</_></rects>
      <tilted>1</tilted></_>
    <_>
      <rects>
        <_>
          30 14 5 12 -1.</_>
        <_>
          30 18 5 4 3.</_></rects>
      <tilted>0</tilted></_>
    <_>
      <rects>
        <_>
          30 28 4 10 -1.</_>
        <_>
          30 28 2 5 2.</_>
        <_>
          32 33 2 5 2.</_></rects>
      <tilted>0</tilted></_>
    <_>
      <rects>
        <_>
          30 29 4 4 -1.</_>
        <_>
          30 29 2 2 2.</_>
        <_>
          32 31 2 2 2.</_></rects>
      <tilted>0</tilted></_>
    <_>
      <rects>
        <_>
          30 29 4 6 -1.</_>
        <_>
          30 29 2 3 2.</_>
        <_>
          32 32 2 3 2.</_></rects>
      <tilted>0</tilted></_>
    <_>
      <rects>
        <_>
          30 30 1 3 -1.</_>
        <_>
          30 31 1 1 3.</_></rects>
      <tilted>0</tilted></_>
    <_>
      <rects>
        <_>
          30 36 3 2 -1.</_>
        <_>
          30 37 3 1 2.</_></rects>
      <tilted>0</tilted></_>
    <_>
      <rects>
        <_>
          31 1 1 15 -1.</_>
        <_>
          31 6 1 5 3.</_></rects>
      <tilted>0</tilted></_>
    <_>
      <rects>
        <_>
          31 2 2 3 -1.</_>
        <_>
          31 3 2 1 3.</_></rects>
      <tilted>0</tilted></_>
    <_>
      <rects>
        <_>
          31 2 4 8 -1.</_>
        <_>
          33 2 2 8 2.</_></rects>
      <tilted>0</tilted></_>
    <_>
      <rects>
        <_>
          31 2 2 48 -1.</_>
        <_>
          31 14 2 24 2.</_></rects>
      <tilted>0</tilted></_>
    <_>
      <rects>
        <_>
          31 2 3 21 -1.</_>
        <_>
          31 9 3 7 3.</_></rects>
      <tilted>0</tilted></_>
    <_>
      <rects>
        <_>
          31 7 4 3 -1.</_>
        <_>
          33 7 2 3 2.</_></rects>
      <tilted>0</tilted></_>
    <_>
      <rects>
        <_>
          31 8 2 36 -1.</_>
        <_>
          31 20 2 12 3.</_></rects>
      <tilted>0</tilted></_>
    <_>
      <rects>
        <_>
          31 9 3 10 -1.</_>
        <_>
          31 9 3 5 2.</_></rects>
      <tilted>1</tilted></_>
    <_>
      <rects>
        <_>
          31 15 4 5 -1.</_>
        <_>
          32 16 2 5 2.</_></rects>
      <tilted>1</tilted></_>
    <_>
      <rects>
        <_>
          31 23 3 1 -1.</_>
        <_>
          32 23 1 1 3.</_></rects>
      <tilted>0</tilted></_>
    <_>
      <rects>
        <_>
          31 23 3 2 -1.</_>
        <_>
          32 23 1 2 3.</_></rects>
      <tilted>0</tilted></_>
    <_>
      <rects>
        <_>
          31 24 3 1 -1.</_>
        <_>
          32 24 1 1 3.</_></rects>
      <tilted>0</tilted></_>
    <_>
      <rects>
        <_>
          31 25 3 2 -1.</_>
        <_>
          32 25 1 2 3.</_></rects>
      <tilted>0</tilted></_>
    <_>
      <rects>
        <_>
          31 28 2 9 -1.</_>
        <_>
          32 28 1 9 2.</_></rects>
      <tilted>0</tilted></_>
    <_>
      <rects>
        <_>
          31 28 2 3 -1.</_>
        <_>
          31 29 2 1 3.</_></rects>
      <tilted>0</tilted></_>
    <_>
      <rects>
        <_>
          31 30 4 8 -1.</_>
        <_>
          32 31 2 8 2.</_></rects>
      <tilted>1</tilted></_>
    <_>
      <rects>
        <_>
          31 30 4 8 -1.</_>
        <_>
          31 30 2 4 2.</_>
        <_>
          33 34 2 4 2.</_></rects>
      <tilted>0</tilted></_>
    <_>
      <rects>
        <_>
          31 31 3 4 -1.</_>
        <_>
          30 32 3 2 2.</_></rects>
      <tilted>1</tilted></_>
    <_>
      <rects>
        <_>
          31 33 1 4 -1.</_>
        <_>
          31 33 1 2 2.</_></rects>
      <tilted>1</tilted></_>
    <_>
      <rects>
        <_>
          31 35 4 6 -1.</_>
        <_>
          31 35 2 6 2.</_></rects>
      <tilted>1</tilted></_>
    <_>
      <rects>
        <_>
          31 46 4 3 -1.</_>
        <_>
          33 46 2 3 2.</_></rects>
      <tilted>0</tilted></_>
    <_>
      <rects>
        <_>
          32 0 1 30 -1.</_>
        <_>
          32 15 1 15 2.</_></rects>
      <tilted>0</tilted></_>
    <_>
      <rects>
        <_>
          32 1 2 48 -1.</_>
        <_>
          32 17 2 16 3.</_></rects>
      <tilted>0</tilted></_>
    <_>
      <rects>
        <_>
          32 4 1 2 -1.</_>
        <_>
          32 5 1 1 2.</_></rects>
      <tilted>0</tilted></_>
    <_>
      <rects>
        <_>
          32 9 3 39 -1.</_>
        <_>
          33 22 1 13 9.</_></rects>
      <tilted>0</tilted></_>
    <_>
      <rects>
        <_>
          32 15 3 2 -1.</_>
        <_>
          32 15 3 1 2.</_></rects>
      <tilted>1</tilted></_>
    <_>
      <rects>
        <_>
          32 16 2 4 -1.</_>
        <_>
          31 17 2 2 2.</_></rects>
      <tilted>1</tilted></_>
    <_>
      <rects>
        <_>
          32 18 2 15 -1.</_>
        <_>
          33 18 1 15 2.</_></rects>
      <tilted>0</tilted></_>
    <_>
      <rects>
        <_>
          32 19 3 12 -1.</_>
        <_>
          32 22 3 6 2.</_></rects>
      <tilted>0</tilted></_>
    <_>
      <rects>
        <_>
          32 20 3 1 -1.</_>
        <_>
          33 21 1 1 3.</_></rects>
      <tilted>1</tilted></_>
    <_>
      <rects>
        <_>
          32 22 3 3 -1.</_>
        <_>
          33 23 1 1 9.</_></rects>
      <tilted>0</tilted></_>
    <_>
      <rects>
        <_>
          32 23 3 1 -1.</_>
        <_>
          33 23 1 1 3.</_></rects>
      <tilted>0</tilted></_>
    <_>
      <rects>
        <_>
          32 23 3 3 -1.</_>
        <_>
          32 24 3 1 3.</_></rects>
      <tilted>0</tilted></_>
    <_>
      <rects>
        <_>
          32 24 1 3 -1.</_>
        <_>
          32 25 1 1 3.</_></rects>
      <tilted>0</tilted></_>
    <_>
      <rects>
        <_>
          32 25 2 3 -1.</_>
        <_>
          32 26 2 1 3.</_></rects>
      <tilted>0</tilted></_>
    <_>
      <rects>
        <_>
          32 32 2 1 -1.</_>
        <_>
          32 32 1 1 2.</_></rects>
      <tilted>1</tilted></_>
    <_>
      <rects>
        <_>
          32 40 3 4 -1.</_>
        <_>
          31 41 3 2 2.</_></rects>
      <tilted>1</tilted></_>
    <_>
      <rects>
        <_>
          33 10 2 16 -1.</_>
        <_>
          29 14 2 8 2.</_></rects>
      <tilted>1</tilted></_>
    <_>
      <rects>
        <_>
          33 16 2 9 -1.</_>
        <_>
          30 19 2 3 3.</_></rects>
      <tilted>1</tilted></_>
    <_>
      <rects>
        <_>
          33 18 1 3 -1.</_>
        <_>
          33 19 1 1 3.</_></rects>
      <tilted>0</tilted></_>
    <_>
      <rects>
        <_>
          33 21 2 12 -1.</_>
        <_>
          33 25 2 4 3.</_></rects>
      <tilted>0</tilted></_>
    <_>
      <rects>
        <_>
          33 22 2 8 -1.</_>
        <_>
          33 24 2 4 2.</_></rects>
      <tilted>0</tilted></_>
    <_>
      <rects>
        <_>
          33 23 1 2 -1.</_>
        <_>
          33 24 1 1 2.</_></rects>
      <tilted>0</tilted></_>
    <_>
      <rects>
        <_>
          33 24 1 24 -1.</_>
        <_>
          33 30 1 12 2.</_></rects>
      <tilted>0</tilted></_>
    <_>
      <rects>
        <_>
          33 24 1 26 -1.</_>
        <_>
          33 37 1 13 2.</_></rects>
      <tilted>0</tilted></_></features></cascade>
</opencv_storage>
